{
  "version": "1.0",
  "truncation": null,
  "padding": null,
  "added_tokens": [
    {
      "id": 0,
      "content": "<|endoftext|>",
      "single_word": false,
      "lstrip": false,
      "rstrip": false,
      "normalized": false,
      "special": true
    },
    {
      "id": 1,
      "content": "<pad>",
      "single_word": false,
      "lstrip": false,
      "rstrip": false,
      "normalized": false,
      "special": true
    },
    {
      "id": 2,
      "content": "<newline>",
      "single_word": false,
      "lstrip": false,
      "rstrip": false,
      "normalized": false,
      "special": true
    }
  ],
  "normalizer": null,
  "pre_tokenizer": {
    "type": "Sequence",
    "pretokenizers": [
      {
        "type": "Split",
        "pattern": {
          "String": "\n"
        },
        "behavior": "Isolated",
        "invert": false
      }
    ]
  },
  "post_processor": null,
  "decoder": null,
  "model": {
    "type": "BPE",
    "dropout": null,
    "unk_token": null,
    "continuing_subword_prefix": null,
    "end_of_word_suffix": null,
    "fuse_unk": false,
    "byte_fallback": false,
    "ignore_merges": false,
    "vocab": {
      "<|endoftext|>": 0,
      "<pad>": 1,
      "<newline>": 2,
      "\n": 3,
      " ": 4,
      "!": 5,
      "\"": 6,
      "$": 7,
      "%": 8,
      "&": 9,
      "(": 10,
      ")": 11,
      "*": 12,
      "+": 13,
      ",": 14,
      "-": 15,
      ".": 16,
      "/": 17,
      "0": 18,
      "1": 19,
      "2": 20,
      "3": 21,
      "4": 22,
      "5": 23,
      "6": 24,
      "7": 25,
      "8": 26,
      "9": 27,
      ":": 28,
      ";": 29,
      "<": 30,
      "=": 31,
      ">": 32,
      "@": 33,
      "A": 34,
      "B": 35,
      "C": 36,
      "D": 37,
      "E": 38,
      "G": 39,
      "H": 40,
      "I": 41,
      "J": 42,
      "K": 43,
      "L": 44,
      "M": 45,
      "N": 46,
      "O": 47,
      "P": 48,
      "Q": 49,
      "R": 50,
      "S": 51,
      "T": 52,
      "U": 53,
      "V": 54,
      "X": 55,
      "[": 56,
      "]": 57,
      "_": 58,
      "a": 59,
      "b": 60,
      "c": 61,
      "d": 62,
      "e": 63,
      "f": 64,
      "g": 65,
      "h": 66,
      "i": 67,
      "j": 68,
      "k": 69,
      "l": 70,
      "m": 71,
      "n": 72,
      "o": 73,
      "p": 74,
      "q": 75,
      "r": 76,
      "s": 77,
      "t": 78,
      "u": 79,
      "v": 80,
      "w": 81,
      "x": 82,
      "y": 83,
      "z": 84,
      "{": 85,
      "|": 86,
      "}": 87,
      "—": 88,
      "le": 89,
      "st": 90,
      "t ": 91,
      "let ": 92,
      "re": 93,
      "};": 94,
      "\"_": 95,
      "\"_\"": 96,
      "str": 97,
      "){": 98,
      "co": 99,
      "if": 100,
      "if(": 101,
      ");": 102,
      "64": 103,
      "su": 104,
      "er": 105,
      "lt": 106,
      "\"_\";": 107,
      "t(": 108,
      "al": 109,
      "resu": 110,
      "result": 111,
      "i=": 112,
      "nt": 113,
      "ar": 114,
      "as": 115,
      "ut": 116,
      "0;": 117,
      "=m": 118,
      "str.": 119,
      "el": 120,
      "in": 121,
      "se": 122,
      "i64": 123,
      "ge": 124,
      "):": 125,
      "ut.": 126,
      "at": 127,
      "f=": 128,
      "=mut.": 129,
      "con": 130,
      "len": 131,
      "+1": 132,
      "id": 133,
      "or": 134,
      " let ": 135,
      "el{": 136,
      "}el{": 137,
      "ca": 138,
      "on": 139,
      "tr": 140,
      "ue": 141,
      "$str": 142,
      "get(": 143,
      "m=": 144,
      "ro": 145,
      "arr": 146,
      "te": 147,
      ".get(": 148,
      "){<": 149,
      " as": 150,
      "p(": 151,
      "lo": 152,
      "lp(": 153,
      "lp(let ": 154,
      "cat(": 155,
      "val": 156,
      "fi": 157,
      "concat(": 158,
      "str.concat(": 159,
      "ch": 160,
      "\"_\";\"_\";": 161,
      "true": 162,
      "s=": 163,
      ".len": 164,
      "};<": 165,
      "ol": 166,
      ":i64": 167,
      " as ": 168,
      "+1){": 169,
      "cou": 170,
      "s;": 171,
      "me": 172,
      "it": 173,
      "count": 174,
      "is": 175,
      "{let ": 176,
      "de": 177,
      "))": 178,
      "};if(": 179,
      "fal": 180,
      "false": 181,
      "i=i": 182,
      "u64": 183,
      "ac": 184,
      "to": 185,
      "um": 186,
      "ig": 187,
      "d.": 188,
      "i<": 189,
      "mp": 190,
      "s:": 191,
      "lp(let i=": 192,
      "result=": 193,
      "i=i+1){": 194,
      "@(": 195,
      "sh": 196,
      "num": 197,
      ";f=": 198,
      "\"_\");": 199,
      "};f=": 200,
      ";let ": 201,
      "ate": 202,
      "f64": 203,
      "bo": 204,
      ".get(i": 205,
      ")){": 206,
      " if(": 207,
      ":i64):": 208,
      ";i=i+1){": 209,
      "an": 210,
      "ke": 211,
      "mo": 212,
      "lp(let i=0;": 213,
      "th": 214,
      " as u64": 215,
      "!(": 216,
      "ht": 217,
      ":st": 218,
      "ass": 219,
      "yp": 220,
      "ve": 221,
      "lp(let i=0;i<": 222,
      "hs": 223,
      ":std.": 224,
      "un": 225,
      "ex": 226,
      "ion": 227,
      "));": 228,
      "s(": 229,
      "str.concat(\"_\";": 230,
      "str;": 231,
      "log": 232,
      "c=": 233,
      "=0": 234,
      "ur": 235,
      "son": 236,
      "=mut.0;": 237,
      "fir": 238,
      "$str):": 239,
      "first": 240,
      "){if(": 241,
      "la": 242,
      "json": 243,
      "};let ": 244,
      "pro": 245,
      "bool": 246,
      "idx": 247,
      "d=": 248,
      "en": 249,
      "ent": 250,
      "\"_\";\"_\";\"_\";\"_\";": 251,
      ";if(": 252,
      "ft": 253,
      "err": 254,
      "result=result": 255,
      "ad": 256,
      "s.": 257,
      "ri": 258,
      "ing": 259,
      ":\"_\";": 260,
      "age": 261,
      "ma": 262,
      "arra": 263,
      ");let ": 264,
      "rig": 265,
      "}}": 266,
      "0.": 267,
      "ine": 268,
      "na": 269,
      "{if(": 270,
      ";\"_\"": 271,
      "ce": 272,
      "str.arra": 273,
      "asser": 274,
      "fo": 275,
      "mod": 276,
      "left": 277,
      "oth": 278,
      "other": 279,
      "i64{let ": 280,
      ":i64;": 281,
      "result=result+": 282,
      "){<\"_\"": 283,
      "core": 284,
      "}el{if(": 285,
      "test": 286,
      "right": 287,
      "10": 288,
      ":@": 289,
      "il": 290,
      "row": 291,
      "ush": 292,
      "s.len": 293,
      "ne": 294,
      "ush(": 295,
      "name": 296,
      "ap": 297,
      "req": 298,
      "char": 299,
      "true;": 300,
      "ok": 301,
      "n=": 302,
      "ow": 303,
      "=mut.\"_\";": 304,
      "(n": 305,
      "res": 306,
      "32": 307,
      "};<result": 308,
      "sum": 309,
      "ver": 310,
      "secon": 311,
      ";i=i+1){let ": 312,
      ");if(": 313,
      "che": 314,
      "wor": 315,
      "=0;": 316,
      "ti": 317,
      ":f64": 318,
      "li": 319,
      "par": 320,
      "cont": 321,
      "rhs": 322,
      "false;": 323,
      "num1": 324,
      "code": 325,
      "q(": 326,
      "fa": 327,
      "ted": 328,
      "di": 329,
      "model": 330,
      "line": 331,
      "results=": 332,
      "results;": 333,
      "{<": 334,
      "lhs": 335,
      "second": 336,
      "ct": 337,
      "i=str": 338,
      "i=str:std.": 339,
      "cur": 340,
      "min": 341,
      "ypush(": 342,
      "str.arraypush(": 343,
      "$str{let ": 344,
      "per": 345,
      "sor": 346,
      ";\"_\");": 347,
      "-1": 348,
      ":str;": 349,
      "str.arraypush(results;": 350,
      ":$str):": 351,
      "results=str.arraypush(results;": 352,
      "$str;": 353,
      "fro": 354,
      " results=str.arraypush(results;": 355,
      "(p": 356,
      "ase": 357,
      " if(str.": 358,
      "col": 359,
      "0){": 360,
      "lh": 361,
      "core.": 362,
      "sto": 363,
      "0;0;": 364,
      "=true": 365,
      "ype": 366,
      "low": 367,
      "pri": 368,
      "(arr": 369,
      "ed": 370,
      "are": 371,
      "out": 372,
      " results=str.arraypush(results;asser": 373,
      "ain": 374,
      "up": 375,
      "(\"_\";": 376,
      "ic": 377,
      "=\"_\"": 378,
      "ab": 379,
      "type": 380,
      "ity": 381,
      ":$": 382,
      "word": 383,
      "ss": 384,
      "foun": 385,
      "tp": 386,
      "str.concat(\"_\";str.concat(": 387,
      "num2": 388,
      "t=": 389,
      "fail": 390,
      "rent": 391,
      "dig": 392,
      ";};": 393,
      ":v": 394,
      "i=str:std.str;": 395,
      "po": 396,
      "olve": 397,
      "j=": 398,
      "s.get(i": 399,
      "current": 400,
      "eq(": 401,
      "lv": 402,
      "s:$str):": 403,
      "store": 404,
      " as i64": 405,
      ".get(j": 406,
      "ra": 407,
      "result{": 408,
      "str.fro": 409,
      "solve": 410,
      ":v ": 411,
      "ation": 412,
      "digit": 413,
      "arr.len": 414,
      "ck": 415,
      " as$str": 416,
      ")=": 417,
      "acc": 418,
      "}el{<": 419,
      "count=": 420,
      "y=": 421,
      "):$": 422,
      "tot": 423,
      "qu": 424,
      ":@i64": 425,
      "<$": 426,
      "ot": 427,
      "(c": 428,
      "result=mut.": 429,
      "ace": 430,
      "http": 431,
      "act": 432,
      ":e": 433,
      "ser": 434,
      "contain": 435,
      "ip": 436,
      "all": 437,
      "sorted": 438,
      "op": 439,
      "=mut.0;let ": 440,
      "stat": 441,
      "lp(let i=0;i<n": 442,
      "log.": 443,
      "ter": 444,
      "por": 445,
      "t.": 446,
      "0.0": 447,
      "val=": 448,
      "ind": 449,
      "){let ": 450,
      "len(": 451,
      "}el{};": 452,
      ":str": 453,
      "int": 454,
      "mat": 455,
      "1;": 456,
      " results=str.arraypush(results;assert": 457,
      "check": 458,
      "total": 459,
      "pass": 460,
      ":i64):i64": 461,
      "br": 462,
      "json.": 463,
      "\"_\";\"_\";\"_\";\"_\";\"_\";\"_\";\"_\";\"_\";": 464,
      "+1;": 465,
      "pat": 466,
      "contains(": 467,
      "new": 468,
      "$err": 469,
      "){<false": 470,
      "00": 471,
      "@();": 472,
      ":f64):": 473,
      "max": 474,
      ".0;": 475,
      "len=": 476,
      "s);": 477,
      "n;": 478,
      "temp": 479,
      "<0": 480,
      "pas": 481,
      "star": 482,
      "sed": 483,
      "};<result};": 484,
      "y.": 485,
      "){<\"_\"};if(": 486,
      "confi": 487,
      "config": 488,
      "sp": 489,
      "share": 490,
      "db": 491,
      "exp": 492,
      "key": 493,
      "m=m": 494,
      "found": 495,
      "shared.": 496,
      "))};": 497,
      "dat": 498,
      "(x": 499,
      ":shared.": 500,
      "lower": 501,
      "u8": 502,
      "$ok": 503,
      "rh": 504,
      "1){": 505,
      "idx=": 506,
      "c>": 507,
      "mpt": 508,
      " if(str.eq(": 509,
      "reg": 510,
      "state": 511,
      "ke.": 512,
      "ken": 513,
      ")};": 514,
      "nth": 515,
      "iti": 516,
      "log;": 517,
      ":\"_\"": 518,
      "r=": 519,
      "get": 520,
      "i=log": 521,
      "result=mut.\"_\";": 522,
      "sa": 523,
      "file": 524,
      "r.": 525,
      ";f=solve": 526,
      "p0": 527,
      "\"_\";\"_\");": 528,
      ";\"_\")){": 529,
      "c<": 530,
      "nd": 531,
      "j=j": 532,
      "/2": 533,
      ":f64;": 534,
      "rec": 535,
      "for": 536,
      "=str.concat(": 537,
      "statu": 538,
      "f=m": 539,
      ";i=i+1){let c=": 540,
      "comp": 541,
      "cla": 542,
      ";i=i+1){if(": 543,
      "info": 544,
      "and": 545,
      "))))": 546,
      " as u8": 547,
      ":i64):i64{let ": 548,
      "fe": 549,
      "ms": 550,
      "str(": 551,
      "12": 552,
      "run": 553,
      "y(": 554,
      "=mut.false": 555,
      "};};": 556,
      " log.": 557,
      ":@i64):": 558,
      ".0": 559,
      "arr.get(i": 560,
      "bod": 561,
      ":i64):bool": 562,
      "ul": 563,
      "id;": 564,
      "i=m": 565,
      "i32": 566,
      "+1){let ": 567,
      "pad": 568,
      "lhs=": 569,
      ":$str;": 570,
      ")){<": 571,
      "token": 572,
      "url": 573,
      ".len;": 574,
      " results=str.arraypush(results;asserttrue": 575,
      "case": 576,
      "f64{let ": 577,
      "str.array": 578,
      "div": 579,
      "am": 580,
      "0.0;": 581,
      "valid": 582,
      "iz": 583,
      " lp(let ": 584,
      ")));": 585,
      "){<0": 586,
      "start": 587,
      "};<result};f=": 588,
      "port": 589,
      "\"_\")": 590,
      "){result=": 591,
      "){if(c<": 592,
      "i=mut.": 593,
      "0;0;0;0;": 594,
      "agent": 595,
      " str.concat(": 596,
      "x=": 597,
      "od": 598,
      "fg": 599,
      "j<": 600,
      "s.get(": 601,
      "(val": 602,
      "ext": 603,
      "$str{if(": 604,
      "no": 605,
      "m=core.": 606,
      "ial": 607,
      "part": 608,
      "ste": 609,
      " results=str.arraypush(results;asserttrue(\"_\";": 610,
      "():": 611,
      "wid": 612,
      "prime": 613,
      "){<true": 614,
      ":core.": 615,
      "};if(!(": 616,
      " as u64;": 617,
      "clamp": 618,
      "y;": 619,
      "bu": 620,
      "he": 621,
      "cost": 622,
      "count=count": 623,
      "freq": 624,
      "ard": 625,
      "cap": 626,
      "resp": 627,
      "ho": 628,
      "2;": 629,
      "has": 630,
      "dis": 631,
      ")){if(": 632,
      "mint(": 633,
      "str.fromint(": 634,
      "tex": 635,
      "fib": 636,
      "tool": 637,
      "error": 638,
      "uest": 639,
      "im": 640,
      "vo": 641,
      "=mut.0;lp(let i=0;i<": 642,
      "pre": 643,
      "request": 644,
      "ner": 645,
      "pl": 646,
      "(first": 647,
      "lp(let j": 648,
      "(s:$str):": 649,
      ":e ": 650,
      "eve": 651,
      "score": 652,
      "+1};": 653,
      "tmp": 654,
      "sc": 655,
      "s.len;let ": 656,
      "}};": 657,
      "neg": 658,
      "ance": 659,
      "ay": 660,
      "width": 661,
      "ch=": 662,
      "info(": 663,
      "=mt ": 664,
      ":i64):i64{if(": 665,
      "}};<": 666,
      "month": 667,
      "path": 668,
      "<2": 669,
      "modelid": 670,
      "value": 671,
      "upper": 672,
      "msg": 673,
      "siti": 674,
      "str.from": 675,
      "vi": 676,
      "time": 677,
      "sq": 678,
      "c=\"_\"": 679,
      "=\"_\"){": 680,
      ":u64": 681,
      "appro": 682,
      "}el{result=result+": 683,
      ":shared.log;": 684,
      "i=log:shared.log;": 685,
      "lp(let i=0;i<n;i=i+1){let c=": 686,
      "fact": 687,
      "vow": 688,
      "vowel": 689,
      "ob": 690,
      "raw": 691,
      "m=test": 692,
      " as$str)": 693,
      "sen": 694,
      "=0 as u64": 695,
      "cfg": 696,
      "11": 697,
      "=true};if(": 698,
      "pass=": 699,
      "+1){if(": 700,
      "be": 701,
      "lp(let j=0;": 702,
      ";0": 703,
      "i);": 704,
      "(p0": 705,
      "set": 706,
      "fibon": 707,
      "ult": 708,
      "text": 709,
      "loc": 710,
      "mem": 711,
      "sig": 712,
      "}};if(": 713,
      "cl": 714,
      "fibonacc": 715,
      "io": 716,
      "now": 717,
      "factor": 718,
      "+@(": 719,
      ")>": 720,
      "space": 721,
      "s:@": 722,
      "<result": 723,
      "last": 724,
      " m": 725,
      "ule": 726,
      "arr.get(": 727,
      "lab": 728,
      "rhs=": 729,
      "i=mut.0;": 730,
      "at(": 731,
      "=mut.false;": 732,
      "types;": 733,
      "fibonacci": 734,
      "end": 735,
      "();": 736,
      ";f=solve(p0": 737,
      "str{": 738,
      "sion": 739,
      "100": 740,
      "};f=is": 741,
      "factorial": 742,
      "mis": 743,
      "olla": 744,
      ".len;let ": 745,
      ")as": 746,
      "regi": 747,
      "mess": 748,
      "message": 749,
      "push(": 750,
      "ant": 751,
      "parse": 752,
      "+1}el{": 753,
      "ing;": 754,
      "teq(": 755,
      ":$str):$str{let ": 756,
      "alt": 757,
      "void": 758,
      "json;": 759,
      "date": 760,
      "=mut.false;if(": 761,
      ".get(i);if(": 762,
      "(arr:@i64):": 763,
      "t=$": 764,
      ":str):$": 765,
      "*2": 766,
      "entr": 767,
      "$ok:": 768,
      "go": 769,
      "inst": 770,
      "bool{let ": 771,
      "q=": 772,
      "com": 773,
      "loke": 774,
      "base": 775,
      "99": 776,
      "s.len;": 777,
      "sw": 778,
      "pass=pass": 779,
      ":bool": 780,
      ";f=is": 781,
      "gest": 782,
      "=str.": 783,
      "mid": 784,
      "i=t": 785,
      " \"_\";": 786,
      "p=": 787,
      "ii": 788,
      "r=r": 789,
      " mt ": 790,
      "sub": 791,
      "<0){": 792,
      "s=@(": 793,
      "memor": 794,
      "late": 795,
      "aliz": 796,
      "=mut.@();": 797,
      "andle": 798,
      "k=": 799,
      "ll": 800,
      "result=result+@(": 801,
      "ai": 802,
      "cp": 803,
      "cand": 804,
      "body": 805,
      "m=is": 806,
      "event": 807,
      "idate": 808,
      "candidate": 809,
      "able": 810,
      "){<\"_\"};let ": 811,
      "96": 812,
      "tive": 813,
      "safe": 814,
      "handle": 815,
      "app": 816,
      "clamped": 817,
      ".get(i as u64": 818,
      "s:$str;": 819,
      "123": 820,
      "name;": 821,
      "ack": 822,
      "i=json": 823,
      ":i64):$str{let ": 824,
      "lp(let j=0;j<": 825,
      "i=json:std.": 826,
      " as f64": 827,
      "vid": 828,
      "mar": 829,
      "n=s.len;let ": 830,
      "es": 831,
      " as u8;0": 832,
      "r=r+": 833,
      "ec": 834,
      "}el{let ": 835,
      "i=json:std.json;": 836,
      " log.info(": 837,
      "ollama": 838,
      "old": 839,
      " as u8;0 as u8;0": 840,
      "){<\"_\"};<": 841,
      "provid": 842,
      "ml": 843,
      "i=i+1": 844,
      "zz": 845,
      "dif": 846,
      "(\"_\");": 847,
      "registr": 848,
      "filt": 849,
      "str.concat(j": 850,
      "step": 851,
      "=lv": 852,
      ":str):": 853,
      " lp(let lv": 854,
      ":@f64": 855,
      "97": 856,
      "val=other": 857,
      "desc": 858,
      "provider": 859,
      "){is": 860,
      "inde": 861,
      "$str{<": 862,
      "fail=": 863,
      "fill": 864,
      "cli": 865,
      "month=": 866,
      "er.": 867,
      "active": 868,
      "priv": 869,
      "label": 870,
      "server": 871,
      "tit": 872,
      "fail=fail": 873,
      ";\"_\"));": 874,
      "pip": 875,
      "ele": 876,
      "ces": 877,
      "alle": 878,
      "ise": 879,
      "mpty": 880,
      "day": 881,
      "tier": 882,
      ")){if(!(": 883,
      "){if(!(": 884,
      "quer": 885,
      "found=": 886,
      "sensiti": 887,
      "stor": 888,
      "ta": 889,
      "fail=fail+1};": 890,
      "list": 891,
      "(lh": 892,
      "/10": 893,
      "shor": 894,
      "vern": 895,
      "<1": 896,
      "title": 897,
      "i=0;": 898,
      "by": 899,
      "pass=pass+1}el{": 900,
      "=$": 901,
      "put": 902,
      "shif": 903,
      "rule": 904,
      "sign": 905,
      "c.": 906,
      "))};f=": 907,
      "};};<": 908,
      "vity": 909,
      "approx": 910,
      ";f=m": 911,
      "passed": 912,
      "=mut.\"_\";let ": 913,
      "lv=lv": 914,
      " lp(let lv=0;": 915,
      "lv=lv){": 916,
      "assert(": 917,
      "db.": 918,
      "str.contains(": 919,
      "mple": 920,
      "=0){": 921,
      ":@i64;": 922,
      "0 as u64;": 923,
      "find": 924,
      "res=": 925,
      "=true;": 926,
      "sensitivity": 927,
      "pass=pass+1}el{fail=fail+1};": 928,
      "nc": 929,
      "privac": 930,
      "entity": 931,
      "pt": 932,
      "sum=": 933,
      "d;": 934,
      "result.": 935,
      "=mut.0;if(": 936,
      "nt(": 937,
      "m;": 938,
      "$err:e ": 939,
      "i=str:std.str": 940,
      " str.concat(\"_\";": 941,
      "sy": 942,
      "ateg": 943,
      "gb": 944,
      "i;": 945,
      "ye": 946,
      "}}}}": 947,
      "str.arrayget(": 948,
      "=\"_\";": 949,
      ":f64):f64{let ": 950,
      ";\"_\")": 951,
      "}el{if(!(": 952,
      "us": 953,
      "s;\"_\");": 954,
      "=c": 955,
      "av": 956,
      "ite": 957,
      ":v false;": 958,
      ">0": 959,
      "eline": 960,
      ";str.concat(\"_\";str.concat(": 961,
      "ero": 962,
      "update": 963,
      "s.get(i);if(": 964,
      " out": 965,
      "ason": 966,
      "govern": 967,
      "format": 968,
      "governance": 969,
      "trim": 970,
      "fiel": 971,
      "n-": 972,
      "loke.": 973,
      "-1;": 974,
      "ask": 975,
      "ategor": 976,
      "c=true": 977,
      "10;": 978,
      "unit": 979,
      "i64{<": 980,
      "rout": 981,
      "d:": 982,
      "not": 983,
      "cop": 984,
      "year": 985,
      "code(": 986,
      "00;": 987,
      "pol": 988,
      "str.arraylen(": 989,
      "cfg.": 990,
      "ader": 991,
      "count=count+1": 992,
      "arg": 993,
      "fix": 994,
      "content": 995,
      "v;": 996,
      "igh": 997,
      "result=mut.\"_\";let ": 998,
      "zc=true": 999,
      "rema": 1000,
      ":u64):": 1001,
      "2=": 1002,
      "moke.": 1003,
      ":shared.types;": 1004,
      "i=t:shared.types;": 1005,
      "do": 1006,
      "ive": 1007,
      "=mut.1": 1008,
      "mit": 1009,
      "ash": 1010,
      "of": 1011,
      ":i64):$str{if(": 1012,
      ")*": 1013,
      "i64{": 1014,
      "index": 1015,
      "profile": 1016,
      ")as ": 1017,
      "flo": 1018,
      "local": 1019,
      "0;0;0;0;0;0;0;0;": 1020,
      "obj": 1021,
      ":v false;$": 1022,
      "=false": 1023,
      "i>": 1024,
      "(num1": 1025,
      "bool{": 1026,
      "field": 1027,
      "italiz": 1028,
      "capitaliz": 1029,
      "\"_\")){": 1030,
      "descri": 1031,
      "want": 1032,
      "arr.len as i64": 1033,
      "str.len(": 1034,
      "dec": 1035,
      "pct": 1036,
      " if(str.contains(": 1037,
      "got": 1038,
      "stage": 1039,
      ";if(!(": 1040,
      "(left": 1041,
      "entri": 1042,
      ":i64):i64{<": 1043,
      "n(": 1044,
      "t.assert(": 1045,
      "filter": 1046,
      "pipeline": 1047,
      "=str.concat(out": 1048,
      "factorialrec": 1049,
      "hi": 1050,
      "rr": 1051,
      " results=str.arraypush(results;asserteq(": 1052,
      "b=": 1053,
      "m=solve": 1054,
      "c>64": 1055,
      "0);": 1056,
      "$ok:v ": 1057,
      "m=tests.": 1058,
      "):str{": 1059,
      "lokeerr": 1060,
      "cid": 1061,
      "pal": 1062,
      "\"_\"));": 1063,
      "sess": 1064,
      ":\"_\"}": 1065,
      "!$": 1066,
      "si": 1067,
      "s ": 1068,
      "c>96": 1069,
      "stre": 1070,
      "word=": 1071,
      ";str.concat(\"_\";": 1072,
      "a=": 1073,
      "fibonaccirec": 1074,
      "sup": 1075,
      "rel": 1076,
      "name:\"_\";": 1077,
      "storage": 1078,
      "ram": 1079,
      "};<r": 1080,
      "@(\"_\";\"_\";\"_\";\"_\";\"_\";\"_\";\"_\";\"_\";": 1081,
      ".0;let ": 1082,
      "let": 1083,
      ":i64):bool{if(": 1084,
      "polic": 1085,
      "ph": 1086,
      "s:@(": 1087,
      "sche": 1088,
      "qual": 1089,
      "opt": 1090,
      "lev": 1091,
      "pow": 1092,
      "header": 1093,
      "i=str:std.string;": 1094,
      "s;f=": 1095,
      "=mut.false;let ": 1096,
      "session": 1097,
      "){if(c<9": 1098,
      "unit.": 1099,
      "m=tests.unit.": 1100,
      "eq": 1101,
      "i=log:std.": 1102,
      ");};": 1103,
      "arch": 1104,
      "umul": 1105,
      " out=str.concat(out": 1106,
      "){if(c<123": 1107,
      "ed=": 1108,
      "id:": 1109,
      "conf": 1110,
      "s.get(i as u64": 1111,
      "bm": 1112,
      "so": 1113,
      "reason": 1114,
      "*)": 1115,
      "n=0": 1116,
      "(*": 1117,
      "summar": 1118,
      "ment": 1119,
      "inter": 1120,
      "};<count": 1121,
      "str=": 1122,
      "shortest": 1123,
      "high": 1124,
      "count(": 1125,
      "-(": 1126,
      "i=log:std.log;": 1127,
      "report": 1128,
      "entrie": 1129,
      "c>64){if(c<9": 1130,
      "defa": 1131,
      "accumul": 1132,
      "(arr:@i64):i64{let ": 1133,
      "m.": 1134,
      "nu": 1135,
      "}el{}": 1136,
      "zero": 1137,
      "\"_\"};if(": 1138,
      ")){let ": 1139,
      "pos": 1140,
      "hook": 1141,
      "ction": 1142,
      "installe": 1143,
      "1=": 1144,
      "default": 1145,
      "left=": 1146,
      "p.": 1147,
      "que": 1148,
      "store;": 1149,
      "(r": 1150,
      "aut": 1151,
      "lon": 1152,
      "=mut.@(": 1153,
      "store.": 1154,
      "right=": 1155,
      "search": 1156,
      "point": 1157,
      "from": 1158,
      "mcp": 1159,
      "gu": 1160,
      "red": 1161,
      "om": 1162,
      "i=i+1){let ": 1163,
      "governance.": 1164,
      "abs": 1165,
      "json.str(": 1166,
      ":f64):f64": 1167,
      "ryp": 1168,
      ";\"_\")));": 1169,
      "len;": 1170,
      "count:": 1171,
      "respon": 1172,
      "requ": 1173,
      "char=": 1174,
      ":@u64": 1175,
      "@i64{let ": 1176,
      "first=": 1177,
      "tokens": 1178,
      "divis": 1179,
      "response": 1180,
      "x;": 1181,
      "){result=result+": 1182,
      "bool{if(": 1183,
      "};<r};": 1184,
      ":@f64):": 1185,
      "diff": 1186,
      "c>96){if(c<123": 1187,
      "}el{if(c=": 1188,
      "tract": 1189,
      "num=": 1190,
      "memory.": 1191,
      "back": 1192,
      "=mut.0.0;": 1193,
      "};let result=mut.": 1194,
      "level": 1195,
      "ative": 1196,
      "k=k": 1197,
      "pi": 1198,
      "prod": 1199,
      "letter": 1200,
      "+(": 1201,
      "assert": 1202,
      "check=true": 1203,
      "j=j+1){if(": 1204,
      "repor": 1205,
      "}}el{": 1206,
      ";i=": 1207,
      "read": 1208,
      "err(": 1209,
      "Err": 1210,
      "Ok": 1211,
      "print": 1212,
      "und": 1213,
      "righ": 1214,
      "){<val": 1215,
      "accumulate": 1216,
      "ator": 1217,
      "(s": 1218,
      "html": 1219,
      "dete": 1220,
      "y{": 1221,
      "sort": 1222,
      "(s:$str):$str{let ": 1223,
      "i<n": 1224,
      "deg": 1225,
      "inal": 1226,
      " c": 1227,
      "load": 1228,
      "25": 1229,
      "(c as$str)": 1230,
      "ption": 1231,
      "26": 1232,
      "ag": 1233,
      "m<": 1234,
      "{<is": 1235,
      "longest": 1236,
      "ide": 1237,
      ";i=i+1){r=r+": 1238,
      "ub": 1239,
      "=mut.true;": 1240,
      "query": 1241,
      "tern": 1242,
      "\"_\"+": 1243,
      "db;": 1244,
      "s.push(": 1245,
      "http.": 1246,
      ":bool;": 1247,
      "confid": 1248,
      "fter": 1249,
      "lokeerr{": 1250,
      ":$str):i64{let ": 1251,
      "val>": 1252,
      "count=mut.0;": 1253,
      "31": 1254,
      "divisor": 1255,
      "));};<r};": 1256,
      "num1=": 1257,
      "cent": 1258,
      "){<1": 1259,
      "ith": 1260,
      "str.fromi32": 1261,
      "c=\"_\"){": 1262,
      "br;};": 1263,
      "prompt": 1264,
      "we": 1265,
      "!$lokeerr{": 1266,
      "non": 1267,
      ":std.http": 1268,
      "http:std.http": 1269,
      "lhs;": 1270,
      " results=str.arraypush(results;asserteq(\"_\";": 1271,
      "dash": 1272,
      "p0.len": 1273,
      "war": 1274,
      "48": 1275,
      "plat": 1276,
      "param": 1277,
      "i+1": 1278,
      ");<": 1279,
      "rhs<2": 1280,
      "u64{let ": 1281,
      "arr.len as i64;i=i+1){r=r+": 1282,
      "e(": 1283,
      " j": 1284,
      "remo": 1285,
      "arr.get(j": 1286,
      "proces": 1287,
      "inder": 1288,
      "remainder": 1289,
      "s(s:$str):": 1290,
      "5;": 1291,
      "=current": 1292,
      "m=loke.": 1293,
      "use": 1294,
      "class": 1295,
      "j=j+1){let ": 1296,
      "0;let ": 1297,
      "b;": 1298,
      "ct(": 1299,
      "lp(let i=0 as u64;": 1300,
      "ange": 1301,
      " as$str);": 1302,
      "status": 1303,
      "description": 1304,
      "erge": 1305,
      "digit=": 1306,
      ":u64;": 1307,
      "inword=": 1308,
      "second=": 1309,
      " let e": 1310,
      ":false;": 1311,
      "colum": 1312,
      "next": 1313,
      "\"_\";\"_\";\"_\");": 1314,
      "limit": 1315,
      "sum=sum": 1316,
      "res.": 1317,
      "void{let ": 1318,
      "ize": 1319,
      "false};": 1320,
      " if(t.assert(": 1321,
      "rever": 1322,
      "y=y": 1323,
      ">0){": 1324,
      "ight": 1325,
      "work": 1326,
      ":i64):bool{let ": 1327,
      "float(": 1328,
      "platfor": 1329,
      "ild": 1330,
      "resh": 1331,
      "er;": 1332,
      "str.eq(": 1333,
      "countupper": 1334,
      ".get(i);let ": 1335,
      "ence": 1336,
      "wr": 1337,
      "){<false};if(": 1338,
      "gro": 1339,
      "int(": 1340,
      "lp(let i=1;": 1341,
      "add": 1342,
      "negative": 1343,
      "20": 1344,
      "http:std.http;": 1345,
      "lp(let i=0;i<n;i=i+1){let ": 1346,
      "capitalizen": 1347,
      "ample": 1348,
      ":i64;m": 1349,
      "true;lv=lv){": 1350,
      "dir": 1351,
      " lp(let lv=0;true;lv=lv){": 1352,
      "meth": 1353,
      "0 as u64": 1354,
      "leap": 1355,
      "version": 1356,
      "($": 1357,
      "datase": 1358,
      "m=acc": 1359,
      " let r": 1360,
      ";if(n": 1361,
      "categor": 1362,
      "produ": 1363,
      "after": 1364,
      "dian": 1365,
      "+32": 1366,
      "i=http:std.http;": 1367,
      "method": 1368,
      "s=str.concat(j": 1369,
      " js=str.concat(j": 1370,
      " js=str.concat(js;\"_\");": 1371,
      "byte": 1372,
      "val;": 1373,
      "ted=": 1374,
      "){<false};let ": 1375,
      "tok": 1376,
      "size": 1377,
      "}};f=": 1378,
      "}}el{if(": 1379,
      "ath": 1380,
      "data": 1381,
      "alth": 1382,
      "stream": 1383,
      "kind": 1384,
      "$err:e": 1385,
      "health": 1386,
      "ify": 1387,
      "lag": 1388,
      "/2*2": 1389,
      " o": 1390,
      "item": 1391,
      "rem": 1392,
      "0.0){": 1393,
      "(lhs": 1394,
      ")<": 1395,
      "toon": 1396,
      ";f=to": 1397,
      "sum=sum+": 1398,
      "flag": 1399,
      "extract": 1400,
      "avg": 1401,
      "=mid": 1402,
      "rows;": 1403,
      "val.len": 1404,
      "dataset": 1405,
      "47": 1406,
      "c-": 1407,
      "e.": 1408,
      "{Ok": 1409,
      "|{Ok": 1410,
      "):$result{": 1411,
      "ax": 1412,
      "example": 1413,
      "id:\"_\";": 1414,
      "ext=": 1415,
      "idx<": 1416,
      "ultip": 1417,
      "count=mut.0;let ": 1418,
      " as u8;0 as u8;0 as u8;0 as u8;0": 1419,
      "}}};if(": 1420,
      "};};if(": 1421,
      "dent": 1422,
      "str.fromi32(": 1423,
      ":true;": 1424,
      "sing": 1425,
      "cli.": 1426,
      "zor": 1427,
      "i32;": 1428,
      "conn;": 1429,
      "mb": 1430,
      "nthprime": 1431,
      "place": 1432,
      "c>64){if(c<91){": 1433,
      "p1": 1434,
      "}};<result};f=": 1435,
      "\"_\"};": 1436,
      "isk": 1437,
      "\"_\"))": 1438,
      "build": 1439,
      "fibonaccirec(n": 1440,
      "18": 1441,
      "cond": 1442,
      "<fail": 1443,
      "ifi": 1444,
      ")};f=": 1445,
      "bit": 1446,
      "count;": 1447,
      "v=": 1448,
      "){<0};let ": 1449,
      "elem": 1450,
      "aa": 1451,
      "entiti": 1452,
      "vowel=true};if(": 1453,
      "m=solve;f=solve(p0": 1454,
      "count=count+1;": 1455,
      "api": 1456,
      "+c": 1457,
      "hex": 1458,
      "sli": 1459,
      "){zc=true": 1460,
      ":i64):$str{<": 1461,
      "digits": 1462,
      "){<0.0": 1463,
      "\"_\")){pass=pass+1}el{fail=fail+1};": 1464,
      "p.len": 1465,
      "match": 1466,
      "result=result+(": 1467,
      "slice": 1468,
      "cs": 1469,
      "name:str;": 1470,
      "r=mut.0;lp(let i=0;i<": 1471,
      "ning": 1472,
      "sever": 1473,
      ":$str):bool{let ": 1474,
      "note": 1475,
      "tmp=": 1476,
      "accumulate(arr:@i64):i64{let ": 1477,
      "severity": 1478,
      "16": 1479,
      "r=mut.0;lp(let i=0;i<arr.len as i64;i=i+1){r=r+": 1480,
      "accumulate(arr:@i64):i64{let r=mut.0;lp(let i=0;i<arr.len as i64;i=i+1){r=r+": 1481,
      "user": 1482,
      "//": 1483,
      "first.len": 1484,
      "bin": 1485,
      "i=db": 1486,
      "deno": 1487,
      "enc": 1488,
      "reate": 1489,
      "template": 1490,
      "dum": 1491,
      "task": 1492,
      "(*test": 1493,
      "dumm": 1494,
      "n;let ": 1495,
      "lp(let k": 1496,
      "auth": 1497,
      "viol": 1498,
      "30": 1499,
      " let row": 1500,
      "ded": 1501,
      "code=": 1502,
      "ans": 1503,
      "state{": 1504,
      "pe": 1505,
      "val<": 1506,
      "ang": 1507,
      "guard": 1508,
      "inword": 1509,
      "id);": 1510,
      "id:str;": 1511,
      ":i64;other": 1512,
      ")as u64": 1513,
      "column": 1514,
      "confidence": 1515,
      "gue": 1516,
      "58": 1517,
      "urce": 1518,
      "alph": 1519,
      "f32": 1520,
      "map": 1521,
      "){<true};<": 1522,
      "k<": 1523,
      ".get(i)=": 1524,
      ";i=i+1){result=result+": 1525,
      "):@": 1526,
      "open": 1527,
      "rt(": 1528,
      "gc": 1529,
      "m>": 1530,
      "ud": 1531,
      "test.": 1532,
      "remove": 1533,
      "job": 1534,
      "found=mut.false;": 1535,
      "*10": 1536,
      "}};let ": 1537,
      "s:$": 1538,
      "(row": 1539,
      "(store": 1540,
      "lp(let i=0;i<arr.len": 1541,
      "}el{<false": 1542,
      "mut": 1543,
      "rem=": 1544,
      "countword": 1545,
      ":f64):f64{if(": 1546,
      "3;": 1547,
      "card": 1548,
      "num2=": 1549,
      "pass(n": 1550,
      "n=arr.len": 1551,
      "r;": 1552,
      "orig": 1553,
      "cache": 1554,
      ".get(i);": 1555,
      "ctx": 1556,
      "rhs;": 1557,
      "ull": 1558,
      "s:f64": 1559,
      "term": 1560,
      "sitive": 1561,
      "result=mut.@();": 1562,
      "numer": 1563,
      "positive": 1564,
      "j=str.concat(j": 1565,
      "s.get(i);let ": 1566,
      ".get(j+1": 1567,
      "name:": 1568,
      ">1": 1569,
      "str.to": 1570,
      "}el{result=": 1571,
      "logresult": 1572,
      "parsed": 1573,
      "q=q": 1574,
      "len;i=i+1){let ": 1575,
      "true};": 1576,
      "error(": 1577,
      "state.": 1578,
      "input": 1579,
      "logresult(r": 1580,
      ")))": 1581,
      "ms:": 1582,
      ".get(idx": 1583,
      "exec": 1584,
      "lit(": 1585,
      " if(str.len(": 1586,
      "split(": 1587,
      "lp(let k=0;": 1588,
      "1000": 1589,
      "attr": 1590,
      "ultipl": 1591,
      "=0){<\"_\"};<": 1592,
      "owner": 1593,
      "codepoint": 1594,
      "vowel=true};if(c=": 1595,
      "str.concat(\"_\";r.": 1596,
      "pres": 1597,
      "allow": 1598,
      "temp=": 1599,
      ")=tmp": 1600,
      "(a": 1601,
      "p0;let ": 1602,
      "countvowel": 1603,
      "lp(let i=0;i<1": 1604,
      "warn(": 1605,
      ")};let ": 1606,
      ":$str):$str{if(": 1607,
      "cnt": 1608,
      "risk": 1609,
      "countlower": 1610,
      ");if(!(": 1611,
      "trans": 1612,
      " if(!": 1613,
      "source": 1614,
      "test;": 1615,
      "i64{let n=s.len;let ": 1616,
      "patch": 1617,
      "found=true;": 1618,
      "alpha": 1619,
      "<\"_\"": 1620,
      "s;\"_\")": 1621,
      "charfreq": 1622,
      "post": 1623,
      "){<\"_\"};if(c=\"_\"": 1624,
      "gre": 1625,
      "@(\"_\";\"_\";\"_\";\"_\";\"_\";\"_\";\"_\";\"_\";\"_\";\"_\";\"_\";\"_\";\"_\";\"_\";\"_\";\"_\";": 1626,
      ":i64;fill": 1627,
      "m=to": 1628,
      "rok": 1629,
      "charcode(": 1630,
      "detect": 1631,
      "lay": 1632,
      "proto": 1633,
      "action": 1634,
      "privacy.": 1635,
      "){<\"_\"};if(!(": 1636,
      "(arr.get(i as u64": 1637,
      "r.passed": 1638,
      "<0.0": 1639,
      "i64{if(": 1640,
      "other=": 1641,
      "matche": 1642,
      "palace": 1643,
      "lat": 1644,
      "():void{let ": 1645,
      "squ": 1646,
      "asserteq(": 1647,
      "cor": 1648,
      "s:$str;width": 1649,
      "imate": 1650,
      "wing": 1651,
      "true};if(": 1652,
      "mission": 1653,
      "Err:e ": 1654,
      "gr": 1655,
      "oke.": 1656,
      ";};};": 1657,
      "memory": 1658,
      "};<count};f=": 1659,
      " out.": 1660,
      ";};<": 1661,
      "brok": 1662,
      "s(n": 1663,
      "json(": 1664,
      "storage.": 1665,
      "know": 1666,
      "anon": 1667,
      "){<\"_\"};if(c=\"_\"){<\"_\"};if(c=\"_\"": 1668,
      "(i": 1669,
      "numto": 1670,
      "(arr.get(i as u64));};<r};": 1671,
      "v.": 1672,
      "prefix": 1673,
      "uration": 1674,
      "code=\"_\"){": 1675,
      "gcd": 1676,
      "codepoint=": 1677,
      "code=\"_\"){codepoint=": 1678,
      "rate": 1679,
      "wordcount(": 1680,
      "(val:i64;other": 1681,
      "copy": 1682,
      "decis": 1683,
      "lp(let i=0 as u64;i<": 1684,
      "reverse": 1685,
      "demo": 1686,
      "lp(let i=0;i<n;i=i+1){let c=s.get(i);if(": 1687,
      "draw": 1688,
      "sql": 1689,
      "registry;": 1690,
      "violation": 1691,
      "body=": 1692,
      "rhs=rhs": 1693,
      "supper": 1694,
      "usecase": 1695,
      "-x": 1696,
      "s=mut.@();": 1697,
      "};if(month=": 1698,
      "c=32": 1699,
      "dispatch": 1700,
      "schema": 1701,
      " let c": 1702,
      "anion": 1703,
      "companion": 1704,
      " log.warn(": 1705,
      "trimme": 1706,
      "sort(": 1707,
      "nor": 1708,
      "er(": 1709,
      " let p": 1710,
      "alto": 1711,
      ";q": 1712,
      "led": 1713,
      "leapyear": 1714,
      " as u64);": 1715,
      "s:@$": 1716,
      "finding": 1717,
      "isprime": 1718,
      "log.info(": 1719,
      "(*test:": 1720,
      "100;": 1721,
      "c as$str": 1722,
      "(arr:@f64):": 1723,
      "x=x": 1724,
      " row": 1725,
      "ren": 1726,
      "){<true};if(": 1727,
      "dx": 1728,
      "n){": 1729,
      "metr": 1730,
      "){<false};<": 1731,
      "mp(": 1732,
      "};if(code=\"_\"){codepoint=": 1733,
      "}}};<": 1734,
      "(\"_\")": 1735,
      "requi": 1736,
      " \"_\"": 1737,
      "a+": 1738,
      "\"_\";\"_\";\"_\";\"_\");": 1739,
      "br;": 1740,
      "hour": 1741,
      "tor": 1742,
      "lp(let i=0;i<n;i=i+1){": 1743,
      "f=test": 1744,
      "can": 1745,
      "dot": 1746,
      "sele": 1747,
      "ition": 1748,
      "x>": 1749,
      "output": 1750,
      "4;": 1751,
      "suc": 1752,
      "suf": 1753,
      " let n=": 1754,
      "atio": 1755,
      " modelid": 1756,
      ".get(j)=": 1757,
      "result;": 1758,
      "lhs.len": 1759,
      "expapprox": 1760,
      "){result=\"_\"};if(": 1761,
      " name:\"_\";": 1762,
      "tab": 1763,
      ":std.db;": 1764,
      "entitytype": 1765,
      "ist": 1766,
      "strlen(": 1767,
      "shift": 1768,
      "ii=i": 1769,
      "){count=count+1": 1770,
      "rot": 1771,
      "f=run": 1772,
      "idx=idx": 1773,
      "){<0};if(": 1774,
      "ii<": 1775,
      "){<\"_\"};if(month=": 1776,
      "f=main": 1777,
      "s=str.": 1778,
      "$err($": 1779,
      ":0;": 1780,
      ":0.": 1781,
      "dp": 1782,
      "s=str.concat(": 1783,
      "json.get": 1784,
      "=mut.1;": 1785,
      "j=j+1){": 1786,
      " out=str.concat(out;\"_\");": 1787,
      "ii=0;": 1788,
      "lef": 1789,
      " as i64;": 1790,
      ";i=i+1){if(!(": 1791,
      "pass(n)": 1792,
      " j=str.concat(j": 1793,
      "ie": 1794,
      "config;": 1795,
      "charat(": 1796,
      "m=test.": 1797,
      "queue": 1798,
      "ii=ii": 1799,
      "u32": 1800,
      " test.": 1801,
      "duration": 1802,
      "std.": 1803,
      ":i64):bool{<is": 1804,
      "latenc": 1805,
      "dummy": 1806,
      "idx);": 1807,
      ":$str;other": 1808,
      "-2": 1809,
      "lp(let i=2;": 1810,
      ":\"_\"};": 1811,
      "entry.": 1812,
      "\"_\"};f=": 1813,
      " lp(let ii=0;": 1814,
      "-32": 1815,
      "}};<result};": 1816,
      "er:": 1817,
      " i=i+1": 1818,
      "gener": 1819,
      "i=i+1;": 1820,
      "uni": 1821,
      "caes": 1822,
      ";f=arr": 1823,
      "<result};": 1824,
      "ts": 1825,
      "bound": 1826,
      "9999": 1827,
      "decision": 1828,
      "():$": 1829,
      "sna": 1830,
      "total=": 1831,
      "i=db:std.db;": 1832,
      " out.print": 1833,
      "t as": 1834,
      "sec": 1835,
      "permission": 1836,
      "abs(": 1837,
      "install": 1838,
      " lp(let ii=0;ii<": 1839,
      "anh": 1840,
      "capitalizenext": 1841,
      "collat": 1842,
      "doub": 1843,
      "collatz": 1844,
      "layer": 1845,
      "tar": 1846,
      "cale": 1847,
      "ific": 1848,
      "url;": 1849,
      "syste": 1850,
      "){<false};": 1851,
      "arr.get(i as u64": 1852,
      "steps": 1853,
      "}el{<\"_\"": 1854,
      "))))))))": 1855,
      "client": 1856,
      "));};": 1857,
      "config{": 1858,
      " mt db.": 1859,
      " as$str;": 1860,
      "reg.": 1861,
      "compres": 1862,
      "}}el{result=result+": 1863,
      "contains(\"_\";": 1864,
      "empty": 1865,
      ")){result=": 1866,
      " let r=": 1867,
      "append": 1868,
      "=mut.1.0;let ": 1869,
      "it(": 1870,
      "repe": 1871,
      "ification": 1872,
      "result.get(": 1873,
      " log.error(": 1874,
      "great": 1875,
      "st.": 1876,
      "status:": 1877,
      "(y": 1878,
      "400": 1879,
      "sm": 1880,
      "costus": 1881,
      ":i64;right": 1882,
      "comme": 1883,
      "amp": 1884,
      "ined": 1885,
      "modelid;": 1886,
      "config.": 1887,
      "latency": 1888,
      ")+": 1889,
      "jo": 1890,
      "):i64{": 1891,
      "(n:i64):i64{if(": 1892,
      "colon": 1893,
      "json.str(row": 1894,
      "slice(": 1895,
      " results=str.arraypush(results;assertcontains(\"_\";": 1896,
      "clo": 1897,
      "wind": 1898,
      "str.json": 1899,
      "thresh": 1900,
      "cess": 1901,
      "(arr:@u64": 1902,
      "=mut.@();let ": 1903,
      "recomme": 1904,
      "ell": 1905,
      " asser": 1906,
      ")/2": 1907,
      "encode": 1908,
      "){isvowel=true};if(c=": 1909,
      "s{": 1910,
      "))};f=accumulate(arr:@i64):i64{let r=mut.0;lp(let i=0;i<arr.len as i64;i=i+1){r=r+": 1911,
      "table": 1912,
      "v){<": 1913,
      "idio": 1914,
      "s+@(": 1915,
      ":std.test;": 1916,
      ")>0){": 1917,
      ")){<\"_\"};if(!(": 1918,
      "8;": 1919,
      "hall": 1920,
      "ir": 1921,
      "5.0": 1922,
      "ler": 1923,
      "(\"_\";\"_\");": 1924,
      "0;0;0;0;0;0;0;0;0;0;0;0;0;0;0;0;": 1925,
      "right(": 1926,
      "ak": 1927,
      "final": 1928,
      "+1;};": 1929,
      "@($": 1930,
      "relation": 1931,
      "ship": 1932,
      "encode(": 1933,
      "(cfg": 1934,
      "top": 1935,
      "anu": 1936,
      "p0.get(i);if(": 1937,
      "disk": 1938,
      "suffix": 1939,
      "s.get(ii);": 1940,
      "own": 1941,
      " request": 1942,
      "3=": 1943,
      "brow": 1944,
      "trace": 1945,
      "}}};": 1946,
      "platform.": 1947,
      "x<": 1948,
      " let result=": 1949,
      "anhapprox": 1950,
      " if(i>": 1951,
      "<0){<": 1952,
      "gb:": 1953,
      "drawer": 1954,
      "classify": 1955,
      "!$err": 1956,
      "65": 1957,
      "init": 1958,
      "req.": 1959,
      "ing.": 1960,
      "net": 1961,
      "1){zc=true": 1962,
      " log.info(str.concat(\"_\";": 1963,
      "weight": 1964,
      "5.0;": 1965,
      "isupper": 1966,
      "incid": 1967,
      ":@$str;": 1968,
      "dy": 1969,
      "side": 1970,
      "){if(lhs=": 1971,
      "vice": 1972,
      "}};if(lhs=": 1973,
      "imp": 1974,
      "s.len;ii=ii": 1975,
      "entry": 1976,
      "comb": 1977,
      "reatedat": 1978,
      "result=mut.@(": 1979,
      "shifted": 1980,
      "s:$str;width:i64;fill": 1981,
      ":moke.": 1982,
      "gth": 1983,
      ")){check=true": 1984,
      "padright(": 1985,
      "check=true}}};if(": 1986,
      ")){check=true}};if(lhs=": 1987,
      ");i=i+1){let ": 1988,
      "void{": 1989,
      "metric": 1990,
      " as i64;let ": 1991,
      "json.dec": 1992,
      "wrap": 1993,
      "s:@();": 1994,
      "};f=safe": 1995,
      "!(i>": 1996,
      "report.": 1997,
      "je": 1998,
      "result=mut.\"_\";lp(let i=0;i<": 1999,
      "clamp(": 2000,
      "angle": 2001,
      "len<": 2002,
      " let i=mut.0;": 2003,
      "locale": 2004,
      "context": 2005,
      "val=other){<val": 2006,
      "iter": 2007,
      "result=result*": 2008,
      "numtostr": 2009,
      ";\"_\";": 2010,
      "(n:str;": 2011,
      "line=": 2012,
      ";}": 2013,
      "gra": 2014,
      "guess": 2015,
      " s": 2016,
      "candidate=": 2017,
      ":@f64;": 2018,
      "policy.": 2019,
      "norm": 2020,
      "pai": 2021,
      "false(\"_\";": 2022,
      "comput": 2023,
      "\"_\"}el{if(": 2024,
      "board": 2025,
      "/2*2;if(": 2026,
      "snake": 2027,
      ";<": 2028,
      "rev": 2029,
      "inser": 2030,
      "sent": 2031,
      "start=": 2032,
      "comm": 2033,
      "i*": 2034,
      ":i64):$": 2035,
      "m=moke.": 2036,
      "file.": 2037,
      "1 as u64": 2038,
      "b};": 2039,
      "pii": 2040,
      ":i64;rhs": 2041,
      "(arr:@i64;": 2042,
      "fore": 2043,
      ":@$str):": 2044,
      " results=str.arraypush(results;asserttrue(\"_\";str.contains(": 2045,
      "rence": 2046,
      ">0;": 2047,
      "s;i);": 2048,
      "mid=": 2049,
      "target": 2050,
      "<9": 2051,
      "pos=": 2052,
      "tail": 2053,
      "ncryp": 2054,
      "presidio": 2055,
      "ch=\"_\"){": 2056,
      "i=i+1 as u64": 2057,
      " max": 2058,
      "))){": 2059,
      "(s:$str):$str{let n=s.len;let ": 2060,
      "<str.concat(": 2061,
      "arr;": 2062,
      "countdigits": 2063,
      "recommend": 2064,
      "adj": 2065,
      "ame": 2066,
      "mcp.": 2067,
      ")){<\"_\";": 2068,
      "str.fromfloat(": 2069,
      "tanhapprox": 2070,
      "\"_\")));": 2071,
      "105": 2072,
      "agents.": 2073,
      "(d": 2074,
      "val);": 2075,
      "}}};<result};f=": 2076,
      "threshold": 2077,
      "page": 2078,
      "ref": 2079,
      "caesare": 2080,
      "2){": 2081,
      "s:core.": 2082,
      "days": 2083,
      "bmic": 2084,
      "change": 2085,
      "arr.len;": 2086,
      "117": 2087,
      "swith": 2088,
      "anony": 2089,
      "incident": 2090,
      "f.": 2091,
      "q.": 2092,
      ":i64):@": 2093,
      " let s": 2094,
      "s.get(i);": 2095,
      "left(": 2096,
      "combined": 2097,
      "detail": 2098,
      "left<": 2099,
      "agent.": 2100,
      " description": 2101,
      "eval": 2102,
      "odd": 2103,
      "trim(": 2104,
      "lar": 2105,
      "\"_\");let ": 2106,
      "){if(rhs<2": 2107,
      "enable": 2108,
      "clamped=": 2109,
      "){if(!(rhs<2": 2110,
      "check=true}}};if(idx=": 2111,
      "p;": 2112,
      "@()": 2113,
      ";\"_\"){": 2114,
      "wordcount": 2115,
      "timest": 2116,
      "event.": 2117,
      "normaliz": 2118,
      "caesarencryp": 2119,
      "+\"_\"+": 2120,
      "anag": 2121,
      "r.passed){": 2122,
      "(name": 2123,
      "3){": 2124,
      "arr.get(i);": 2125,
      "n=arr.len;let ": 2126,
      "i64(": 2127,
      "start;": 2128,
      "summary": 2129,
      "-i": 2130,
      "1;let ": 2131,
      "a;": 2132,
      "m=arr": 2133,
      " results=str.arraypush(results;assertfalse(\"_\";": 2134,
      "ary": 2135,
      "comple": 2136,
      " assert.": 2137,
      ";rh": 2138,
      "pa": 2139,
      "ting": 2140,
      "conson": 2141,
      "val){": 2142,
      "peri": 2143,
      "guard;f=": 2144,
      "kip": 2145,
      " error": 2146,
      "s);let ": 2147,
      "tri": 2148,
      "(n:i64;m": 2149,
      "host": 2150,
      "found=true": 2151,
      "collatzstep": 2152,
      ">96": 2153,
      "but": 2154,
      "=mut.\"_\";lp(let i=0;i<": 2155,
      "intent": 2156,
      "br};": 2157,
      "lp(let i=0;i<n;i=i+1){let c=s.get(i as u64": 2158,
      "io.": 2159,
      "installer.": 2160,
      "period": 2161,
      "timestamp": 2162,
      " id:": 2163,
      ":v v;": 2164,
      "countdigitsin": 2165,
      "$result{": 2166,
      "=false;": 2167,
      "anualto": 2168,
      "x;let ": 2169,
      "if(!(": 2170,
      "key=": 2171,
      "verage": 2172,
      "lhs=lhs": 2173,
      " let all": 2174,
      "store{": 2175,
      "status;": 2176,
      "rypto": 2177,
      "=mut.0;lp(let ": 2178,
      "timis": 2179,
      "optimis": 2180,
      "mpty(": 2181,
      "ternal": 2182,
      "square": 2183,
      "p0.": 2184,
      "=true}};if(": 2185,
      "mode": 2186,
      "dist": 2187,
      " out.printline": 2188,
      "dup": 2189,
      "unknow": 2190,
      "snakecase": 2191,
      ".get(i));": 2192,
      ":std.file": 2193,
      ";\"_\")){<": 2194,
      "cl=": 2195,
      "str.concat(\"_\";str.fromint(": 2196,
      "name);": 2197,
      ")as$str": 2198,
      "indexof": 2199,
      "lp(let k=0;k<": 2200,
      ">c": 2201,
      "mel": 2202,
      "with": 2203,
      "pattern": 2204,
      "char as$str)": 2205,
      ".len;j=j+1){if(": 2206,
      "|{Ok:": 2207,
      "largest": 2208,
      "cu": 2209,
      "u64{if(": 2210,
      "s:std.": 2211,
      "true;true;": 2212,
      "entitie": 2213,
      "down": 2214,
      "results);": 2215,
      " let results=": 2216,
      "s;let ": 2217,
      "s();": 2218,
      "before": 2219,
      ";};f=": 2220,
      "m=mut.": 2221,
      "n/": 2222,
      "category": 2223,
      "original": 2224,
      "=str.arrayget(": 2225,
      " let msg": 2226,
      "};<res": 2227,
      "generate": 2228,
      "est": 2229,
      "str.get(": 2230,
      " let i=0;": 2231,
      "updated": 2232,
      "seg": 2233,
      "set(": 2234,
      "curr": 2235,
      "m=core.governance.": 2236,
      "=mut.false;if(!(": 2237,
      " if(r.passed){": 2238,
      "file:std.file": 2239,
      "s.get(idx": 2240,
      "storageerr(": 2241,
      "product": 2242,
      "result=mut.@();let ": 2243,
      ">96){if(": 2244,
      " let line": 2245,
      "m=n-": 2246,
      "privacy": 2247,
      "ust": 2248,
      "\"_\"){": 2249,
      " let has": 2250,
      "){<31": 2251,
      "s.len as i64": 2252,
      "br};let ": 2253,
      "dashboard": 2254,
      "requal": 2255,
      "len;i=i+1){let ch=": 2256,
      "+2": 2257,
      "-m": 2258,
      "-y": 2259,
      ".new": 2260,
      "none": 2261,
      "(raw": 2262,
      "0};": 2263,
      "hel": 2264,
      "};<val": 2265,
      "){<true}el{<false": 2266,
      "s)": 2267,
      "):bool{": 2268,
      "){result=\"_\"};if(idx=": 2269,
      "2);": 2270,
      "var": 2271,
      "abil": 2272,
      "len=s.len;let ": 2273,
      "ference": 2274,
      "<123": 2275,
      "camel": 2276,
      "s=str.fromint(": 2277,
      "};<sum": 2278,
      ";f=example": 2279,
      ":std.time": 2280,
      "():i64{let ": 2281,
      "time:std.time": 2282,
      "+\"_\";": 2283,
      "sjson": 2284,
      "tra": 2285,
      ";if(n=0 as u64": 2286,
      "a+b};": 2287,
      " cont": 2288,
      ".len;if(": 2289,
      "external": 2290,
      "(n;": 2291,
      "-1){if(": 2292,
      ":@i64):@i64{let ": 2293,
      "join": 2294,
      " model": 2295,
      "13": 2296,
      "task:$": 2297,
      "browser": 2298,
      " lp(let i=0;i<": 2299,
      "result);": 2300,
      "udit": 2301,
      "grade": 2302,
      "compute": 2303,
      "replace": 2304,
      "result=mut.false": 2305,
      "handler": 2306,
      ".get(0": 2307,
      "left;": 2308,
      "type:\"_\";": 2309,
      "models.": 2310,
      "padleft(": 2311,
      "i=mut.0;let ": 2312,
      "m=solve;f=solve": 2313,
      " total": 2314,
      " if(!(": 2315,
      "opts.": 2316,
      "}}};f=": 2317,
      ":$str):i64{<": 2318,
      "():bool{": 2319,
      "setting": 2320,
      "=mut.true;lp(let i=0;i<": 2321,
      "audit": 2322,
      "trac": 2323,
      "n=1": 2324,
      "current=": 2325,
      "num=num": 2326,
      "ability": 2327,
      "\"_\"};<": 2328,
      "rows": 2329,
      "json.enc": 2330,
      "process.": 2331,
      "0 as u64;let ": 2332,
      "camelcase": 2333,
      "num=mut.": 2334,
      "icen": 2335,
      "inte": 2336,
      "(lhs:i64;rhs": 2337,
      "a.": 2338,
      "s:$str):$str{let ": 2339,
      ":i64):i64{": 2340,
      "g.": 2341,
      "next=": 2342,
      "str.concat(\"_\";str.concat(r.": 2343,
      "got))))": 2344,
      "}};if(!(": 2345,
      "rend": 2346,
      "loa": 2347,
      "result=result+\"_\";": 2348,
      "swit": 2349,
      "$ok:v v;": 2350,
      "right=right": 2351,
      " loke": 2352,
      "}el{if(!(pct": 2353,
      "$err:e$err($": 2354,
      "){<true};<false": 2355,
      " let r=str.arrayget(": 2356,
      "lines=": 2357,
      " ok": 2358,
      "(m": 2359,
      "cm": 2360,
      "wri": 2361,
      " let n=str.arraylen(": 2362,
      "s=str.split(": 2363,
      "json.str(row;\"_\");": 2364,
      "write": 2365,
      "string": 2366,
      "hash": 2367,
      "registry": 2368,
      ":str):str{": 2369,
      "browser.": 2370,
      "(j": 2371,
      "bool{<is": 2372,
      "group": 2373,
      ".0){": 2374,
      "ved": 2375,
      "ven": 2376,
      ":v \"_\";": 2377,
      "swapp": 2378,
      "f=assert": 2379,
      "ority": 2380,
      ";\"_\";\"_\");": 2381,
      "env": 2382,
      "lic": 2383,
      "pref": 2384,
      "store.conn;": 2385,
      "atch": 2386,
      "n=n": 2387,
      ".get(j);if(": 2388,
      " as u8;0 as u8;0 as u8;0 as u8;0 as u8;0 as u8;0 as u8;0 as u8;0": 2389,
      "anagram": 2390,
      " str.concat(\"_\";str.concat(": 2391,
      ":i32;": 2392,
      "(left:i64;right": 2393,
      "400;": 2394,
      "uco": 2395,
      "time:std.time;": 2396,
      "equal": 2397,
      "n=s.len": 2398,
      "<n;": 2399,
      "m};f=": 2400,
      "lp(let j=": 2401,
      ":state": 2402,
      ".get(j);": 2403,
      ";f=example():void{let ": 2404,
      "conn": 2405,
      "};<q": 2406,
      "c>47": 2407,
      ";\"_\")){pass=pass+1}el{fail=fail+1};": 2408,
      "titlecase": 2409,
      "params(": 2410,
      "ifier:": 2411,
      "cke": 2412,
      "oc": 2413,
      "ailab": 2414,
      " let r=str.arrayget(results;": 2415,
      "1){let ": 2416,
      "len>": 2417,
      "=0.0": 2418,
      "idx=0;": 2419,
      "ailable": 2420,
      "(e": 2421,
      ":loke.": 2422,
      "bad": 2423,
      "ping": 2424,
      "num2;": 2425,
      "s:@i64": 2426,
      "left=left": 2427,
      "sav": 2428,
      ";i=i+1){if(lhs": 2429,
      "ollamaurl": 2430,
      "unknown": 2431,
      "(score": 2432,
      ".len=0 as u64": 2433,
      "ok){": 2434,
      "relu": 2435,
      ")){<\"_\";}el{if(!(pct": 2436,
      "<all": 2437,
      "ast": 2438,
      "ors": 2439,
      "tint": 2440,
      "priority": 2441,
      "csv": 2442,
      "succes": 2443,
      "f=runall": 2444,
      "hold": 2445,
      "adap": 2446,
      "right;": 2447,
      "swap": 2448,
      "oman": 2449,
      "<fail(n": 2450,
      "adapter": 2451,
      "-I": 2452,
      "-L": 2453,
      "Apa": 2454,
      "Cop": 2455,
      "DX": 2456,
      "PDX": 2457,
      "SPDX": 2458,
      "ran": 2459,
      "yrigh": 2460,
      "t 20": 2461,
      "se-I": 2462,
      " let d": 2463,
      "ribut": 2464,
      "che-2": 2465,
      "26 loke": 2466,
      "dentifier:": 2467,
      "//Cop": 2468,
      "//SPDX": 2469,
      " test.asserteq(": 2470,
      " contribut": 2471,
      "icense-I": 2472,
      "-License-I": 2473,
      "Apache-2": 2474,
      "yright 20": 2475,
      "26 loke contribut": 2476,
      "dentifier:Apache-2": 2477,
      "//Copyright 20": 2478,
      "//SPDX-License-I": 2479,
      "26 loke contributors": 2480,
      "dentifier:Apache-2.0": 2481,
      "//Copyright 2026 loke contributors": 2482,
      "//SPDX-License-Identifier:Apache-2.0": 2483,
      " id:\"_\";": 2484,
      "1);": 2485,
      "<true": 2486,
      "ble": 2487,
      "n:i64):i64{let ": 2488,
      "pan": 2489,
      "ypar": 2490,
      "currentword": 2491,
      "math": 2492,
      "expec": 2493,
      "datad": 2494,
      "ject": 2495,
      "bmicategor": 2496,
      "consonant": 2497,
      "elsi": 2498,
      "charcode": 2499,
      "parsed=": 2500,
      "$err:e$err($storageerr(": 2501,
      "5){": 2502,
      "=str.concat(\"_\";str.concat(": 2503,
      "scan": 2504,
      "i=time:std.time;": 2505,
      "placehold": 2506,
      "@(\"_\";\"_\";\"_\";\"_\";\"_\";\"_\";\"_\";\"_\";\"_\";\"_\";\"_\";\"_\";\"_\";\"_\";\"_\";\"_\";\"_\";\"_\";\"_\";\"_\";": 2507,
      "broker.": 2508,
      "pu": 2509,
      "ure": 2510,
      "missing": 2511,
      "diff=": 2512,
      "pass(n)}el{": 2513,
      " logresult(r": 2514,
      "i+1;": 2515,
      "{$": 2516,
      "first;": 2517,
      ":i64;q": 2518,
      "<$ok": 2519,
      " logresult(r);": 2520,
      "cat": 2521,
      "len){": 2522,
      "false){": 2523,
      ":f64;y": 2524,
      "sqrt(": 2525,
      "elem=": 2526,
      "interactive": 2527,
      "k=k+1){": 2528,
      " str.": 2529,
      "fold": 2530,
      "sl": 2531,
      "best": 2532,
      " is": 2533,
      "trimmed": 2534,
      "cted": 2535,
      "one": 2536,
      "f=runall():bool{": 2537,
      "ep": 2538,
      "m=d": 2539,
      "ctor": 2540,
      "feed": 2541,
      "wrapper": 2542,
      "n.": 2543,
      "x.len": 2544,
      "ort": 2545,
      "count){": 2546,
      "=0 as u64;": 2547,
      "=mut.\"_\";if(": 2548,
      "=0;!(": 2549,
      "col;": 2550,
      "val:$str;other": 2551,
      ";i=i+1){result=result+@(": 2552,
      "running": 2553,
      "36": 2554,
      "n-1": 2555,
      "){<\"_\";": 2556,
      "ch=\"_\"": 2557,
      "islower": 2558,
      " if(str.contains(text": 2559,
      "s.get(i as u64);": 2560,
      "lp(let i=1;i<": 2561,
      "panel": 2562,
      "come": 2563,
      "tr.": 2564,
      "ath.": 2565,
      "greater": 2566,
      " let r=str.arrayget(results;i);": 2567,
      " re": 2568,
      "zw": 2569,
      "m=core.memory.": 2570,
      "remain": 2571,
      "toroman": 2572,
      "window": 2573,
      " title": 2574,
      "=str.concat(\"_\";": 2575,
      "wo": 2576,
      "arm": 2577,
      "ent(": 2578,
      "remainder=": 2579,
      " let n=str.arraylen(results);": 2580,
      " value": 2581,
      "9;": 2582,
      "rt": 2583,
      "fizz": 2584,
      "(x:f64):f64{let ": 2585,
      "foldsum": 2586,
      " br": 2587,
      " sensitivity": 2588,
      "ber": 2589,
      "tedat": 2590,
      "quo": 2591,
      "p0.len;": 2592,
      ".get(k": 2593,
      "time.": 2594,
      "mark": 2595,
      "policy": 2596,
      "power": 2597,
      "str.jsonencode(": 2598,
      ":state.": 2599,
      ");str.concat(\"_\";str.concat(": 2600,
      "m=cli.": 2601,
      "=0-": 2602,
      "$ok:v true;": 2603,
      "product(": 2604,
      "unique": 2605,
      "||": 2606,
      "ord": 2607,
      "exist": 2608,
      "m<100": 2609,
      "t as ": 2610,
      "smalle": 2611,
      "m=pad": 2612,
      "sample": 2613,
      "ch=32": 2614,
      "lerance": 2615,
      ">64": 2616,
      "(n:i64):i64{let ": 2617,
      "tokens:": 2618,
      "){<0};<": 2619,
      "():i64{": 2620,
      "message))))": 2621,
      "isempty": 2622,
      "cope": 2623,
      "quality": 2624,
      "swith(": 2625,
      "=math.": 2626,
      "tolerance": 2627,
      "){result=true": 2628,
      "factorialrecwrapper": 2629,
      "confidence:0.": 2630,
      "23": 2631,
      "){<\"_\"}el{if(": 2632,
      "available": 2633,
      "countupper(s:$str):": 2634,
      "numeric": 2635,
      "i64{let n=s.len;let count=mut.0;": 2636,
      "(arr:@f64):f64{let ": 2637,
      "fizzbu": 2638,
      ")/": 2639,
      "=n": 2640,
      "\"_\";\"_\")": 2641,
      "ardw": 2642,
      "locke": 2643,
      "escap": 2644,
      "mbol": 2645,
      "shipping": 2646,
      "){<31};if(month=": 2647,
      ")){<false": 2648,
      "if(m>": 2649,
      "need": 2650,
      "):@$": 2651,
      "-1){if(m<100": 2652,
      "if(m>-1){if(m<100": 2653,
      "50;": 2654,
      "cle": 2655,
      " as u64)=": 2656,
      "prox": 2657,
      "key;": 2658,
      "allowed": 2659,
      "success:": 2660,
      " \"_\");": 2661,
      "ern": 2662,
      "f=new": 2663,
      " let count=": 2664,
      ":i64;c": 2665,
      "}el{if(cl=": 2666,
      "state;": 2667,
      "isempty(": 2668,
      "bmi": 2669,
      "c>96){if(c<123){let ": 2670,
      "){zc=true}el{if(c=": 2671,
      "card{": 2672,
      "1){zc=true}el{if(c=": 2673,
      "0));": 2674,
      "crypto": 2675,
      "mean": 2676,
      "asserte": 2677,
      "providers.": 2678,
      "status=": 2679,
      "){if(c<58": 2680,
      "negate": 2681,
      "backgro": 2682,
      "entities": 2683,
      "c>47){if(c<58": 2684,
      "saving": 2685,
      "})": 2686,
      "num1>": 2687,
      "(c.": 2688,
      "=mt db.": 2689,
      "charfreq(p": 2690,
      "0-": 2691,
      "ation{": 2692,
      "routing": 2693,
      "off": 2694,
      " let results=@($": 2695,
      "fizzbuzz": 2696,
      "i18": 2697,
      "str);": 2698,
      "percent": 2699,
      "arr.get(i);let ": 2700,
      "palind": 2701,
      "res.body": 2702,
      "file:std.file;": 2703,
      "ree": 2704,
      "disco": 2705,
      " as f64;": 2706,
      "s:f64):": 2707,
      "optimiser.": 2708,
      "palindro": 2709,
      " label": 2710,
      "85": 2711,
      "x=mut.": 2712,
      " let out": 2713,
      "toupper": 2714,
      ":f64;other": 2715,
      "condition": 2716,
      "correlation": 2717,
      " let results=@($result);": 2718,
      "palindrome": 2719,
      "a11": 2720,
      "tojson(": 2721,
      "Err:e": 2722,
      "(base": 2723,
      "$err:e false": 2724,
      "parsed{": 2725,
      "1.0;": 2726,
      "j;": 2727,
      "models": 2728,
      "current=current": 2729,
      "op:\"_\";": 2730,
      "term=": 2731,
      "=mut.1;let ": 2732,
      "fromcharcode(": 2733,
      ":f64):f64{<": 2734,
      "companion.": 2735,
      "pun": 2736,
      "tolower": 2737,
      "sho": 2738,
      "resolve": 2739,
      "str.concat(\"_\";str.concat(r.name;": 2740,
      "/deno": 2741,
      "b.": 2742,
      "hardw": 2743,
      "qrt(": 2744,
      "rop": 2745,
      "mpro": 2746,
      "result=\"_\"": 2747,
      "trace.": 2748,
      "shippingcost": 2749,
      ".len as i64": 2750,
      "));let ": 2751,
      "idx=mut.": 2752,
      "name))": 2753,
      "term=term": 2754,
      "str.concat(\"_\";str.concat(r.name;str.concat(\"_\";r.": 2755,
      "router.": 2756,
      "c>96){if(c<123){": 2757,
      "c-97": 2758,
      "caesarencrypt(": 2759,
      "smallest": 2760,
      " p": 2761,
      "};f=nthprime": 2762,
      "bytes(": 2763,
      "execparams(": 2764,
      "ationt": 2765,
      "sieve": 2766,
      "page.": 2767,
      " if(str.contains(text;\"_\")){": 2768,
      "/i": 2769,
      "inf": 2770,
      "=mut.true": 2771,
      "};if(val>": 2772,
      "};<result;};": 2773,
      "zor=true};if(": 2774,
      "stric": 2775,
      "){result=result+@(": 2776,
      "counts": 2777,
      ");let b=": 2778,
      "res=res": 2779,
      "(i as u64": 2780,
      "result):i64{": 2781,
      "f=logresult(r": 2782,
      "den": 2783,
      ":$result):i64{": 2784,
      ":$str;second": 2785,
      "double": 2786,
      " let all=true;": 2787,
      "f=logresult(r:$result):i64{": 2788,
      "d);": 2789,
      "result{<": 2790,
      "br}el{": 2791,
      "*26": 2792,
      "cid);": 2793,
      "asserteq": 2794,
      "result{<$result{": 2795,
      ")};<": 2796,
      "idx=0": 2797,
      "-1 as u64": 2798,
      "bud": 2799,
      "modelid);": 2800,
      "storage.db;": 2801,
      "50": 2802,
      "result=mut.0;let ": 2803,
      "+1 as u64": 2804,
      "device": 2805,
      "first>": 2806,
      "appl": 2807,
      "entry=": 2808,
      "(lhs:$str;": 2809,
      "countlower(first": 2810,
      "s.len;ii=ii+1){": 2811,
      " reason": 2812,
      "&&": 2813,
      "4=": 2814,
      ":msg": 2815,
      "number": 2816,
      "(n:i64):i64{<": 2817,
      "/10)*": 2818,
      "str.concat(\"_\";r.name))": 2819,
      "integr": 2820,
      "feedback": 2821,
      "too": 2822,
      "validate": 2823,
      "inword=true": 2824,
      "range": 2825,
      "info{": 2826,
      "ii1": 2827,
      "repeat(": 2828,
      "<false": 2829,
      "v);": 2830,
      "first.get(i);if(": 2831,
      "num1;": 2832,
      "quot": 2833,
      ":str):bool{": 2834,
      "k=k+1){if(": 2835,
      "count=mut.0;let inword": 2836,
      "countvowels(": 2837,
      "}}el{<": 2838,
      "f=format": 2839,
      "mail": 2840,
      "=true}el{if(": 2841,
      "andbo": 2842,
      "}el{result=result+@(": 2843,
      "i=t:std.test;": 2844,
      "aaak": 2845,
      "binary": 2846,
      "lp(let i=0;i<arr.len;i=i+1){let ": 2847,
      "term=term*": 2848,
      "()": 2849,
      ":core.governance.": 2850,
      "notif": 2851,
      "idx=0;idx<": 2852,
      "37": 2853,
      "m=mut.0;": 2854,
      "sed=": 2855,
      "s;str.concat(\"_\";str.concat(": 2856,
      "lp(let i=1;i<n": 2857,
      "ernate": 2858,
      "shoul": 2859,
      "str.concat(\"_\";str.concat(r.name;str.concat(\"_\";r.message))))": 2860,
      "ulo": 2861,
      "s:$str):bool{let ": 2862,
      "dian3": 2863,
      "numerator": 2864,
      "<fail(n;str.concat(\"_\";str.concat(": 2865,
      " column": 2866,
      "24": 2867,
      "n<": 2868,
      "m=ac": 2869,
      "role": 2870,
      "lp(let dummy": 2871,
      "val=\"_\"": 2872,
      "))));": 2873,
      ")){result=result+@(": 2874,
      "err:e": 2875,
      "s.len=0){<\"_\"};<": 2876,
      ";\"_\");\"_\")){pass=pass+1}el{fail=fail+1};": 2877,
      "(p:i64;q": 2878,
      "prev": 2879,
      "describe": 2880,
      "){<0.0};let ": 2881,
      "post(": 2882,
      "wordcount(s:$str):": 2883,
      "2.": 2884,
      "restric": 2885,
      "strlen": 2886,
      " as i32": 2887,
      "http.get(": 2888,
      "000": 2889,
      ":core.privacy.": 2890,
      ":u64):u64{let ": 2891,
      "shortest=current": 2892,
      "kind:\"_\";": 2893,
      "ultiply(": 2894,
      "result{<$result{name:": 2895,
      "(s;": 2896,
      " let is": 2897,
      "ctal": 2898,
      "(c as$str);": 2899,
      "/26": 2900,
      "countdigitsinstr(": 2901,
      "datadir": 2902,
      "+(c as$str)": 2903,
      "average": 2904,
      "x.": 2905,
      "ill": 2906,
      "second<0": 2907,
      "freq.get(": 2908,
      ":u64):u64{if(": 2909,
      " out=str.concat(out;str.concat(\"_\";str.concat(": 2910,
      "platform": 2911,
      "switch": 2912,
      "str.trim(": 2913,
      "def": 2914,
      "<0){let ": 2915,
      "|{Ok:v v;": 2916,
      "systempro": 2917,
      ";want": 2918,
      "ntr": 2919,
      "length": 2920,
      ";i=i+1){if(arr.get(i": 2921,
      "clamp;f=": 2922,
      "querypar": 2923,
      "=mut.n;": 2924,
      "maxv": 2925,
      "width-": 2926,
      "}};<count": 2927,
      " if(t.assert(str.eq(": 2928,
      "total=total": 2929,
      "null": 2930,
      "q;": 2931,
      "std": 2932,
      "isvalid": 2933,
      "text;": 2934,
      " createdat": 2935,
      " let empty": 2936,
      "estimate": 2937,
      "n=1){<1": 2938,
      "expval": 2939,
      "run.": 2940,
      ":core.memory.": 2941,
      "(n:i64):i64{if(n=0": 2942,
      "lp(let i=0;!(": 2943,
      "s.get(0);": 2944,
      "approximate": 2945,
      "fr": 2946,
      "hw": 2947,
      "ug": 2948,
      "minv": 2949,
      "ation;": 2950,
      ";f=solve(p0:$str):$str{let ": 2951,
      "log.info(str.concat(\"_\";r.name))": 2952,
      "log.info(str.concat(\"_\";r.name))}el{": 2953,
      "p.get(": 2954,
      "m=example": 2955,
      "lp(let m=": 2956,
      "(\"_\";@(": 2957,
      "capitalizenext=": 2958,
      "sort(arr": 2959,
      ")){<\"_\";}el{if(!(pct<": 2960,
      "over": 2961,
      "less": 2962,
      "counts.get(idx": 2963,
      "diar": 2964,
      "ams(": 2965,
      "parts=": 2966,
      "path;": 2967,
      "alternate": 2968,
      "should": 2969,
      "44": 2970,
      ":i32": 2971,
      ">right": 2972,
      "blocke": 2973,
      "invo": 2974,
      "count);": 2975,
      "digital": 2976,
      "clamped=mut.": 2977,
      "s.push($": 2978,
      "){<\"_\"};if(c=\"_\"){<\"_\"};if(c=\"_\"){<\"_\"};if(c=\"_\"){<\"_\"};if(c=\"_\"": 2979,
      ".get(i)": 2980,
      "(path": 2981,
      " log.error(str.concat(\"_\";str.concat(r.name;str.concat(\"_\";r.message))))": 2982,
      "};};};<": 2983,
      "bug": 2984,
      "p=p": 2985,
      "rule.": 2986,
      "restricted": 2987,
      ")}el{<": 2988,
      "ding": 2989,
      "income": 2990,
      " let total": 2991,
      "countconsonant": 2992,
      ":i64;num2": 2993,
      "regist": 2994,
      "arr.get(i as u64));};<r};": 2995,
      "+digit": 2996,
      "@$str{let ": 2997,
      ");i=i+1){": 2998,
      " let parsed=": 2999,
      "=0){<\"_\"};let ": 3000,
      "project": 3001,
      "sorted.get(": 3002,
      " if(str.eq(got": 3003,
      "m=test.moke.": 3004,
      "command": 3005,
      "les": 3006,
      "count<": 3007,
      "d.push(": 3008,
      "idx=mut.0;": 3009,
      "lines": 3010,
      "(arr;": 3011,
      ":bool):": 3012,
      "symbol": 3013,
      "discover": 3014,
      "frac": 3015,
      "(store;": 3016,
      ";fill": 3017,
      "merge": 3018,
      "=\"_\"}el{};": 3019,
      "body;": 3020,
      "job.": 3021,
      "num1>num2": 3022,
      "200;": 3023,
      "){<\"_\"};": 3024,
      "req:i64):i64{": 3025,
      "bmicategory(": 3026,
      " if(str.eq(got;want": 3027,
      " tokens": 3028,
      ")){<pass(n)}el{": 3029,
      "charcode(ch": 3030,
      " modelid:": 3031,
      "(len": 3032,
      ":0": 3033,
      "c;": 3034,
      "kill": 3035,
      "section": 3036,
      "=mut.0 as u64;let ": 3037,
      "debug": 3038,
      "checkprime": 3039,
      "approval": 3040,
      "body);": 3041,
      "conside": 3042,
      "s.len;i=i+1){let ": 3043,
      "s.len();": 3044,
      "))};f=combined": 3045,
      "longestword": 3046,
      "\"_\"};<\"_\"};<": 3047,
      " let s=": 3048,
      "lient": 3049,
      ":$str):bool{if(": 3050,
      "signal": 3051,
      "vot": 3052,
      "};}el{": 3053,
      "pivot": 3054,
      " j=str.concat(j;str.concat(\"_\";": 3055,
      "57": 3056,
      "y<": 3057,
      "sused": 3058,
      " let re": 3059,
      " let id": 3060,
      "line;": 3061,
      "term;": 3062,
      ":@i64):i64{let ": 3063,
      "cpu": 3064,
      " if(r.passed){log.info(str.concat(\"_\";r.name))}el{": 3065,
      "());": 3066,
      "500;": 3067,
      "umb": 3068,
      "exp(": 3069,
      "eq(\"_\";": 3070,
      "$err:v ": 3071,
      ":bool):$result{": 3072,
      "want;str.concat(\"_\";": 3073,
      "s:@()": 3074,
      "shortestword": 3075,
      "(char as$str)": 3076,
      "3;let ": 3077,
      "abo": 3078,
      "lp(let i=0;i<m": 3079,
      "=0};if(": 3080,
      "resp=": 3081,
      "}el{result=result+(c as$str)": 3082,
      "){<\"_\"};<\"_\"};f=": 3083,
      "m=loke.platform.": 3084,
      "candidate=candidate": 3085,
      "remaining": 3086,
      "};};<result};": 3087,
      "thumb": 3088,
      "1000){": 3089,
      "){<\"_\"};let m=n-": 3090,
      "tax": 3091,
      "n-n/": 3092,
      "process;": 3093,
      "if(m>-1){if(m<100){<\"_\"};let m=n-": 3094,
      "batch": 3095,
      "cr": 3096,
      "n=m": 3097,
      "f64{<": 3098,
      " as u64)": 3099,
      "part=": 3100,
      "<0};": 3101,
      "single": 3102,
      "s:$str;width:i64;fill:$str):$str{let ": 3103,
      "clamped=1000": 3104,
      "expected": 3105,
      "1000){clamped=1000": 3106,
      " i=i+1;": 3107,
      "ds": 3108,
      "seen": 3109,
      "f=handle": 3110,
      "=mut.0": 3111,
      "){<n": 3112,
      "sumsq": 3113,
      "guar": 3114,
      "hardware": 3115,
      "(candidate": 3116,
      "c){": 3117,
      " let now": 3118,
      "export": 3119,
      "lap": 3120,
      "bool{<": 3121,
      "ceil": 3122,
      "chart": 3123,
      "api.": 3124,
      "lp(let i=0;i<n;i=i+1){let c=s.get(i as u64);if(": 3125,
      "ep.": 3126,
      "used": 3127,
      "count=mut.0;lp(let i=0;i<": 3128,
      "ramgb": 3129,
      "pair": 3130,
      "want;str.concat(\"_\";got))))": 3131,
      ";other": 3132,
      "d>": 3133,
      "da": 3134,
      " let body=": 3135,
      "ten": 3136,
      ".len;i=i+1){if(": 3137,
      "000;": 3138,
      "shifted=": 3139,
      ">64){if(": 3140,
      "queryparams(": 3141,
      "above": 3142,
      " event": 3143,
      "=json.": 3144,
      "aw": 3145,
      "call": 3146,
      "s+": 3147,
      ")){let tmp=": 3148,
      "countwords(": 3149,
      "lp(let i=0;i<n;i=i+1){let c=s.get(i);if(c>64){if(c<91){": 3150,
      "time.now": 3151,
      "alternatecase": 3152,
      "bar": 3153,
      ";i=i+1){result=result*": 3154,
      "removepun": 3155,
      "(arr:@u64):": 3156,
      "triangle": 3157,
      "taxrate": 3158,
      "*10;": 3159,
      "92": 3160,
      "sr": 3161,
      " results=str.arraypush(results;assertint": 3162,
      "(arr:@i64):@i64{let ": 3163,
      "apply": 3164,
      " results=str.arraypush(results;assertinteq(\"_\";": 3165,
      " status:": 3166,
      "<0){clamped": 3167,
      "rot13": 3168,
      "tract(": 3169,
      "proxy": 3170,
      "invoc": 3171,
      "(obj": 3172,
      "hit": 3173,
      "process": 3174,
      "para": 3175,
      "anualtolower": 3176,
      "1000){clamped=1000};<": 3177,
      "3*": 3178,
      "mer": 3179,
      "orse": 3180,
      "sorted.get(j+1": 3181,
      "s=@(\"_\";\"_\";\"_\";\"_\";\"_\";\"_\";\"_\";\"_\";": 3182,
      "palace.": 3183,
      "rotate": 3184,
      "abs(x": 3185,
      "refresh": 3186,
      "fromcharcode(code": 3187,
      "killswitch": 3188,
      " active": 3189,
      "{name:\"_\";": 3190,
      "t(\"_\");": 3191,
      "arrlen": 3192,
      "=0){if(": 3193,
      "(val:i64;other:i64):i64{if(": 3194,
      "/10)*10;": 3195,
      "systemprompt": 3196,
      "d){": 3197,
      "arr=": 3198,
      "i=io": 3199,
      "first<0": 3200,
      "rows ": 3201,
      "2;f=m": 3202,
      ";f=min": 3203,
      "alphanum": 3204,
      "daysin": 3205,
      "(@(": 3206,
      "lin": 3207,
      "mi": 3208,
      ":$str):$str{let n=": 3209,
      "f32(": 3210,
      "adjust": 3211,
      " description:\"_\";": 3212,
      "intentresult{": 3213,
      "/26*26": 3214,
      "){<s": 3215,
      "val=mut.": 3216,
      "=0.0;": 3217,
      " results=str.arraypush(results;asserttrue(": 3218,
      "m=core.installer.": 3219,
      "=mut.0.0;lp(let i=0;i<": 3220,
      "s(s:$str):$str{let ": 3221,
      "lp(let i=0 as u64;i<n": 3222,
      "extractdigit": 3223,
      "durationms:": 3224,
      "email": 3225,
      "lename": 3226,
      ";f=demo": 3227,
      ")){is": 3228,
      ")){result=result+": 3229,
      "fai": 3230,
      ":str):$result{<$result{name:": 3231,
      "capitalize(": 3232,
      "countwords(s:$str):": 3233,
      " f": 3234,
      "y=mut.": 3235,
      "result=m": 3236,
      "divide": 3237,
      " str.concat(str.jsonencode(": 3238,
      "requestid;": 3239,
      ":str):$result{": 3240,
      "){zc=true}}}}": 3241,
      "found=mut.false;lp(let j=0;j<": 3242,
      "insert": 3243,
      "117){zc=true}}}}": 3244,
      "total=total+": 3245,
      "){count=count+1;": 3246,
      "coin": 3247,
      ".len;i=i+1){let ": 3248,
      "totype": 3249,
      "arr.len=0 as u64": 3250,
      " log.info(\"_\";\"_\";\"_\");": 3251,
      "histor": 3252,
      "denom=": 3253,
      "<0){clamped=0};if(": 3254,
      " tier": 3255,
      "ped": 3256,
      "room": 3257,
      "mod;f=": 3258,
      "rows);": 3259,
      "ick": 3260,
      "quick": 3261,
      "status(": 3262,
      ":$str;q": 3263,
      "};f=ispositive": 3264,
      "ator;": 3265,
      "lp(let i=0;i<1;i=i+1){if(": 3266,
      "lp(let i=2;i*": 3267,
      " lp(let i=0;i<str.arraylen(": 3268,
      "\"_\"}el{": 3269,
      "jsonstr": 3270,
      "idx;": 3271,
      "}}};<count};f=": 3272,
      "model(": 3273,
      ";};};<": 3274,
      ":f64;c": 3275,
      "compli": 3276,
      "lp(let j=0;!(": 3277,
      "(cfg.": 3278,
      "orsechar": 3279,
      "capitalize(ch": 3280,
      "n<0": 3281,
      "p2": 3282,
      "(c+32": 3283,
      "0.0){<": 3284,
      "url:": 3285,
      "256": 3286,
      "a11y.": 3287,
      "guardian": 3288,
      "inner": 3289,
      " let entry=": 3290,
      "chat": 3291,
      "found){": 3292,
      "subtract(": 3293,
      " str.contains(": 3294,
      "+ch": 3295,
      "90": 3296,
      "lan": 3297,
      "n=mut.": 3298,
      "str=mut.\"_\";": 3299,
      "f64{if(": 3300,
      ":std.io": 3301,
      "){<\"_\"}el{<\"_\"": 3302,
      "=\"_\"}el{if(": 3303,
      "matri": 3304,
      "=\"_\";let ": 3305,
      "c>64){if(c<91){let ": 3306,
      "true};if(c=\"_\"){": 3307,
      "i=io:std.io": 3308,
      "200": 3309,
      " let new": 3310,
      "unc": 3311,
      "num1+": 3312,
      "-1.0;let ": 3313,
      "s.get(ii": 3314,
      "y=x": 3315,
      "<$intentresult{": 3316,
      "=true};if(c=\"_\"){": 3317,
      "entry{": 3318,
      "element": 3319,
      "some": 3320,
      "method:\"_\"}": 3321,
      "selection": 3322,
      "ake": 3323,
      "ly": 3324,
      "v:bool):$result{": 3325,
      "aly": 3326,
      "idx+1": 3327,
      "eng": 3328,
      "second>": 3329,
      "usage": 3330,
      "!(i>n": 3331,
      "kth": 3332,
      ":f64;num2": 3333,
      "tokper": 3334,
      "gpu": 3335,
      "));j=j": 3336,
      ":i64;y": 3337,
      "collap": 3338,
      "count=count+1};": 3339,
      "ramgb:": 3340,
      "reversed": 3341,
      "extractletter": 3342,
      "){<true};<false};": 3343,
      "notif.": 3344,
      "anth": 3345,
      "c=mut.": 3346,
      "cond.": 3347,
      "){<30": 3348,
      "startswith(": 3349,
      "odd=": 3350,
      "neg;f=": 3351,
      "s:f64;rh": 3352,
      "describesign": 3353,
      "<$intentresult{task:$": 3354,
      "(line": 3355,
      "@f64{let ": 3356,
      "ares": 3357,
      "prog": 3358,
      "mod5": 3359,
      "found=mut.false;let ": 3360,
      "+1){let c=": 3361,
      "preset": 3362,
      "br;};};if(": 3363,
      "ultiply": 3364,
      " has": 3365,
      "+m": 3366,
      "ew": 3367,
      "pay": 3368,
      "=0){let ": 3369,
      "n=lhs": 3370,
      "view": 3371,
      "(s:$str):$str{let n=s.len;let result=mut.\"_\";": 3372,
      " out.printline(": 3373,
      "1.": 3374,
      ">rhs": 3375,
      "hal": 3376,
      "i=test": 3377,
      ";if(len": 3378,
      "rhs=mut.": 3379,
      "digitsum": 3380,
      "/2;let ": 3381,
      " results=str.arraypush(results;asserteq(\"_\";\"_\";": 3382,
      "sum=sum+term;": 3383,
      " imp": 3384,
      "/10;": 3385,
      ":true": 3386,
      ";@(": 3387,
      ";result=result+(": 3388,
      "bel": 3389,
      "f=asserteq": 3390,
      "len;let ": 3391,
      "){if(right": 3392,
      "ok=mt ": 3393,
      "(n:i64):$str{if(": 3394,
      "lp(let i=0;i<n;i=i+1){let c=s.get(i);let ": 3395,
      ":str):i64{": 3396,
      "sched": 3397,
      "48;": 3398,
      "i+1<": 3399,
      "doubled": 3400,
      "s(s:$str):$str{let n=s.len;let ": 3401,
      ":s.": 3402,
      "fn": 3403,
      "scope": 3404,
      "}if(": 3405,
      "=mut.n;let ": 3406,
      "tient": 3407,
      "linear": 3408,
      "fail(n": 3409,
      "pass(name": 3410,
      "auto": 3411,
      "m=solve;f=solve(p0:$str):$str{let ": 3412,
      "order": 3413,
      "str+": 3414,
      " as u64;let ": 3415,
      ":i64;b": 3416,
      "sumdivisor": 3417,
      " as u8){": 3418,
      "s:@str": 3419,
      "body;\"_\");": 3420,
      "index=": 3421,
      ";f=max": 3422,
      "$json": 3423,
      "40": 3424,
      "n<1": 3425,
      "};<x": 3426,
      "(arr))};": 3427,
      "require": 3428,
      "requires": 3429,
      "expapprox(": 3430,
      "ropic": 3431,
      "g=": 3432,
      "id)){": 3433,
      "lp(let idx=0;idx<": 3434,
      "@(\"_\";\"_\";\"_\";\"_\";": 3435,
      ";f=last": 3436,
      ":f64):$str{<": 3437,
      "s);<": 3438,
      "info.": 3439,
      "i=mut.1;": 3440,
      "short": 3441,
      "argsjson": 3442,
      ")as u8": 3443,
      "left=right": 3444,
      "gues": 3445,
      "s(n:i64):i64{let ": 3446,
      "(n:str;got": 3447,
      "zor=true};if(rhs=": 3448,
      "(lhs:$str;rh": 3449,
      "s=mut.": 3450,
      "x;if(": 3451,
      "x-x": 3452,
      "});": 3453,
      "f=get": 3454,
      "m=count": 3455,
      "m=bool": 3456,
      ":i64):@i64{let ": 3457,
      "lp(let i=0;i<len": 3458,
      "otate": 3459,
      "\"_\";\"_\");let ": 3460,
      "lp(let j=0 as u64;": 3461,
      " mt db.execparams(": 3462,
      "tanhapprox(x:f64):f64{let ": 3463,
      "i18n.": 3464,
      ")){<false};let ": 3465,
      "20;": 3466,
      "l.": 3467,
      "delt": 3468,
      "-1;let ": 3469,
      "n;passed": 3470,
      "score>": 3471,
      "+@(arr.get(i": 3472,
      "appli": 3473,
      "torotate": 3474,
      "};<sum};f=": 3475,
      "n=s.len;if(n=0 as u64": 3476,
      "@(\"_\";\"_\";\"_\";\"_\";\"_\";\"_\";\"_\";\"_\";\"_\";\"_\";\"_\";\"_\";\"_\";\"_\";\"_\";\"_\";\"_\";\"_\";\"_\";\"_\";\"_\";\"_\");": 3477,
      "budget": 3478,
      "anthropic": 3479,
      "m};": 3480,
      "skip": 3481,
      "alread": 3482,
      " let v": 3483,
      "trig": 3484,
      "isleapyear": 3485,
      "pool": 3486,
      "sortedarr.get(": 3487,
      "omial": 3488,
      ";f=totype": 3489,
      "){<false};<true": 3490,
      "json.getstr(": 3491,
      "repeat": 3492,
      "segment": 3493,
      "$model": 3494,
      "p<": 3495,
      "){res=": 3496,
      " let h": 3497,
      "val;let ": 3498,
      "left>right": 3499,
      ":i64;exp": 3500,
      "fast": 3501,
      "sorted.get(j": 3502,
      "0.0-": 3503,
      "(val:f64;other": 3504,
      "tools": 3505,
      "mbed": 3506,
      " name:": 3507,
      ";c": 3508,
      " let url": 3509,
      "first.len;let ": 3510,
      ";if(n=0": 3511,
      "i64{let a=": 3512,
      ";};};};": 3513,
      ".len;lp(let i=0;i<n;i=i+1){let c=": 3514,
      "(s:$str):$str{if(": 3515,
      "s.get(i);if(ch=32": 3516,
      "@(\"_\";\"_\";\"_\";\"_\";\"_\";\"_\";\"_\";\"_\";\"_\";\"_\";\"_\";\"_\");": 3517,
      ":i64):bool{if(x": 3518,
      "sort;f=": 3519,
      "=true};if(!(": 3520,
      "idx=i": 3521,
      "m=core.privacy.": 3522,
      "freqchar": 3523,
      "(first:$str;second": 3524,
      "=false}el{};": 3525,
      "(num1:i64;num2": 3526,
      "(store:i64;": 3527,
      "largestcoin": 3528,
      "json.encstr(": 3529,
      "<$ok(": 3530,
      "|{Ok:v v;Err:e ": 3531,
      "()){": 3532,
      "=row": 3533,
      " let t": 3534,
      "(\"_\";\"_\")": 3535,
      "arr.len;let ": 3536,
      "sortedarr.get(j": 3537,
      "m=min": 3538,
      "saved": 3539,
      "filter.": 3540,
      "simple": 3541,
      "second=second": 3542,
      "protocol;": 3543,
      " log.warn(str.concat(\"_\";": 3544,
      "installresult{": 3545,
      "distance": 3546,
      "integration": 3547,
      "compliance": 3548,
      "attemp": 3549,
      "isdigit": 3550,
      "isvowel": 3551,
      " if(has": 3552,
      ":i64):f64{let ": 3553,
      "result=mut.0.0;": 3554,
      "stats.": 3555,
      "(x:i64):bool{if(x": 3556,
      "value:\"_\"}": 3557,
      "result=mut.0;if(": 3558,
      "eno": 3559,
      "num1=mut.0;let ": 3560,
      ":str;want": 3561,
      "out:": 3562,
      ":i64):i64{let result=mut.": 3563,
      "){<0};": 3564,
      "}el{result=result+ch": 3565,
      "inword=false": 3566,
      "binomial": 3567,
      "-val": 3568,
      "j=mut.": 3569,
      ");\"_\");": 3570,
      "+1);": 3571,
      "arrcontains(": 3572,
      "first<": 3573,
      "row{": 3574,
      "requestid": 3575,
      "modelid:\"_\";": 3576,
      "tag": 3577,
      "title;": 3578,
      "hour>": 3579,
      ":@$str):@$str{let ": 3580,
      "palace.conn;": 3581,
      ")!$err": 3582,
      "i=file:std.file;": 3583,
      "m=max": 3584,
      ":f64;second": 3585,
      "approve": 3586,
      "profile.": 3587,
      "ified": 3588,
      "file.read": 3589,
      "<91){": 3590,
      "rank": 3591,
      "escape(": 3592,
      "$lokeerr": 3593,
      "1){if(": 3594,
      "au": 3595,
      "sandbo": 3596,
      "left=mut.0;let ": 3597,
      "){<\"_\"};if(code=": 3598,
      "255": 3599,
      "cents": 3600,
      "bytes": 3601,
      "toks:": 3602,
      "ctx.": 3603,
      "append(": 3604,
      "mcp.protocol;": 3605,
      "doubled=": 3606,
      "lp(let dummy=0;": 3607,
      "lp(let j=0 as u64;j<": 3608,
      ":str;want:str):$result{": 3609,
      "30.0": 3610,
      "celsi": 3611,
      "pub": 3612,
      "two": 3613,
      "f=check": 3614,
      " let m": 3615,
      "val;if(": 3616,
      "expi": 3617,
      "arr.get(mid": 3618,
      "rule{": 3619,
      "reverseint(": 3620,
      "success": 3621,
      "anonymis": 3622,
      "cube": 3623,
      "len;i=i+1){let ch=s.get(i);if(ch=32": 3624,
      " stage": 3625,
      ")=0){": 3626,
      "season": 3627,
      "f=parse": 3628,
      "m=safe": 3629,
      "s);i=i+1){let ": 3630,
      "<result};f=": 3631,
      "mcpbroker.": 3632,
      "deg>": 3633,
      "result=mut.@();lp(let i=0;i<": 3634,
      "duplic": 3635,
      "1));": 3636,
      "1.0": 3637,
      "f=build": 3638,
      "lp(let x": 3639,
      "enc.": 3640,
      ";\"_\")))": 3641,
      "httpmethod": 3642,
      "+1;};<": 3643,
      "<2){<false};if(": 3644,
      "text:": 3645,
      "acker": 3646,
      "(s))};": 3647,
      "confident": 3648,
      "openai": 3649,
      "lp(let k=0;k": 3650,
      " str.push(": 3651,
      "slash": 3652,
      "trigg": 3653,
      "(s:$str;": 3654,
      ":0.0;": 3655,
      "eed": 3656,
      "ual": 3657,
      "lp(let k=": 3658,
      "chan": 3659,
      "promp": 3660,
      "spaw": 3661,
      "){<\"_\"};let result=mut.\"_\";let ": 3662,
      "route": 3663,
      "<fail(n;str.concat(\"_\";str.concat(want;str.concat(\"_\";got))))": 3664,
      ";fill)};": 3665,
      " if(str.eq(got;want)){<pass(n)}el{": 3666,
      "kthsmallest": 3667,
      "2=0;": 3668,
      "3.0": 3669,
      ":false": 3670,
      "m);": 3671,
      "};};if(!(": 3672,
      "try": 3673,
      "dele": 3674,
      "vent": 3675,
      "sorted=": 3676,
      "=str.get(": 3677,
      "};let result=mut.@();": 3678,
      "duplicate": 3679,
      " source": 3680,
      "-a": 3681,
      "mask": 3682,
      "n;if(": 3683,
      "\"_\"))))": 3684,
      "result.len": 3685,
      "verify": 3686,
      "(arr:@f64;": 3687,
      "all=false}el{};": 3688,
      "zero2": 3689,
      "(month": 3690,
      "():$result{": 3691,
      "1);let ": 3692,
      "30;": 3693,
      "m=mut.0;let ": 3694,
      "n){<": 3695,
      " as u64;if(": 3696,
      "){let digit=": 3697,
      ":f64):$str{if(": 3698,
      "(val:$str;other": 3699,
      "disp": 3700,
      "comment": 3701,
      " log.info(str.concat(\"_\";str.concat(": 3702,
      "mitter": 3703,
      "session{": 3704,
      "m=loke.core.": 3705,
      " modelid:\"_\";": 3706,
      "1)": 3707,
      "6;": 3708,
      "<out": 3709,
      "val.get(i);if(": 3710,
      ";if(remainder": 3711,
      "nee": 3712,
      "name=": 3713,
      "n=val": 3714,
      ":$str):i64{if(": 3715,
      "1){count=count+1;": 3716,
      "valid=false": 3717,
      "(val;other": 3718,
      "}};<r": 3719,
      " lp(let lv=0;i<": 3720,
      ");<a+b};": 3721,
      "(a:i64;b": 3722,
      "close": 3723,
      "$err:e$err($storageerr(str.concat(\"_\";": 3724,
      "ationtype": 3725,
      "num1=mut.0;let num2": 3726,
      " severity": 3727,
      "del": 3728,
      "pr": 3729,
      "sure": 3730,
      "ature": 3731,
      "+1.0;": 3732,
      "s.len=0": 3733,
      " as$str);};": 3734,
      "maxlen": 3735,
      "bucke": 3736,
      "lp(let i=0;i<n;i=i+1){let c=first.get(i);if(": 3737,
      "healthy": 3738,
      "){<0};if(n=1){<1": 3739,
      " assert.eq(": 3740,
      "background": 3741,
      "){found=true;": 3742,
      "=merge": 3743,
      "str.join": 3744,
      "elap": 3745,
      " let result": 3746,
      "roo": 3747,
      "tosnakecase": 3748,
      "){<true};let ": 3749,
      "bub": 3750,
      "report(": 3751,
      "b;b=": 3752,
      "dx*": 3753,
      "lines=line": 3754,
      "count=mut.0;let inword=mut.false;": 3755,
      " message": 3756,
      "2){if(": 3757,
      "};};let ": 3758,
      ";i=i+1){let c=p0.get(i);if(": 3759,
      "};<res};": 3760,
      "ceildiv": 3761,
      "jsonstr(c.": 3762,
      "){<0};if(n=1){<1};let ": 3763,
      "bubble": 3764,
      "stack": 3765,
      "recor": 3766,
      "i=mem": 3767,
      "=0);": 3768,
      "aph": 3769,
      "types:core.": 3770,
      "dat:": 3771,
      "$ok(": 3772,
      "state=": 3773,
      "};};};};": 3774,
      "(lhs:@": 3775,
      "memory.types;": 3776,
      "status{": 3777,
      "graph": 3778,
      "costusd:": 3779,
      " if(i>n){": 3780,
      "needle": 3781,
      "!(i>n);i=i+1){let ": 3782,
      "i=test:std.test;": 3783,
      "i=memtypes:core.": 3784,
      "i=memtypes:core.memory.types;": 3785,
      "(text": 3786,
      ">q": 3787,
      "i=c": 3788,
      "conne": 3789,
      ";\"_\");let ": 3790,
      " results=str.arraypush(results;test": 3791,
      "upstream": 3792,
      "speed": 3793,
      "timeof": 3794,
      "report{": 3795,
      "p.len;i=i+1){": 3796,
      "line=line": 3797,
      "external;": 3798,
      "placeholder": 3799,
      "params": 3800,
      "confidential": 3801,
      "bucket": 3802,
      "<str.concat(\"_\";str.concat(": 3803,
      "ale": 3804,
      "m))};": 3805,
      "chain": 3806,
      "sum=mut.1.0;let ": 3807,
      ";};};};<": 3808,
      "match=": 3809,
      "arr.get(i);if(": 3810,
      "lhs=rhs": 3811,
      "(lhs;": 3812,
      " out=str.concat(out;": 3813,
      "proto.": 3814,
      "swapped": 3815,
      "res.body;\"_\"));": 3816,
      "correlationid": 3817,
      "below": 3818,
      ")){<\"_\"};let ": 3819,
      "07": 3820,
      "0);let ": 3821,
      "28": 3822,
      "ratio": 3823,
      "s=mut.\"_\";": 3824,
      "i64(row": 3825,
      "tocamelcase": 3826,
      "s:u64": 3827,
      "mock": 3828,
      "than": 3829,
      "firstchar": 3830,
      "col.": 3831,
      "abb": 3832,
      "parts.get(": 3833,
      "capability": 3834,
      "};f=isprime": 3835,
      "=mut.@();lp(let i=0;i<": 3836,
      "name;str.concat(\"_\";str.concat(": 3837,
      ":str):@": 3838,
      "stren": 3839,
      "@(\"_\";\"_\";\"_\";\"_\";\"_\";\"_\";\"_\";\"_\";\"_\";\"_\");": 3840,
      "idx<str.len(": 3841,
      "layers:": 3842,
      "json.dec(": 3843,
      "product(arr": 3844,
      "3);": 3845,
      "nex": 3846,
      "gex": 3847,
      "val(": 3848,
      "=0.": 3849,
      "lain": 3850,
      "(n:$str;": 3851,
      ":f64):i64{let ": 3852,
      ":$str;p1": 3853,
      "r=r+c as$str": 3854,
      "bmi<": 3855,
      "defaultconfig": 3856,
      "trail": 3857,
      "swapcase": 3858,
      "thumbsup": 3859,
      "s);<a+b};": 3860,
      "$none": 3861,
      "5.0){": 3862,
      ":$str": 3863,
      "rat": 3864,
      "v ": 3865,
      "result=mut.0;lp(let i=0;i<": 3866,
      " let b": 3867,
      "f64(": 3868,
      "char as$str);": 3869,
      ":empty": 3870,
      "+1;}el{": 3871,
      "node": 3872,
      "(s:$str):i64{let a=": 3873,
      ")as$str;": 3874,
      "take": 3875,
      "(lhs:$str):$str{let ": 3876,
      "classification": 3877,
      "isprime(candidate": 3878,
      "idx=idx+1){let ": 3879,
      "loade": 3880,
      "success:false;": 3881,
      "strength": 3882,
      "15": 3883,
      "sid": 3884,
      "y-y": 3885,
      " let header": 3886,
      "-1};": 3887,
      "resp.": 3888,
      "1000;": 3889,
      "days=": 3890,
      "}}}}}}}}": 3891,
      "):@u64{let ": 3892,
      "term=mut.1.0;let ": 3893,
      "help": 3894,
      "helper": 3895,
      "lp(let i=2;i*i<": 3896,
      "<pass": 3897,
      "=exp": 3898,
      "sum=mut.0;let ": 3899,
      "num1<": 3900,
      "form": 3901,
      ":core.providers.": 3902,
      "=cnt": 3903,
      "=false){": 3904,
      "category(": 3905,
      "u32;": 3906,
      "(arr:@u64;": 3907,
      "countupper(s:$str):i64{let n=s.len;let count=mut.0;": 3908,
      "lp(let i=0;i<n;i=i+1){let c=s.get(i);if(c>64){if(c<91){count=count+1": 3909,
      "linearsearch": 3910,
      "countupper(s:$str):i64{let n=s.len;let count=mut.0;lp(let i=0;i<n;i=i+1){let c=s.get(i);if(c>64){if(c<91){count=count+1": 3911,
      "sortedarr": 3912,
      "t.str": 3913,
      "status);": 3914,
      "cloud": 3915,
      "};<q};f=": 3916,
      "greaterthan": 3917,
      " col": 3918,
      " durationms:": 3919,
      "n<2": 3920,
      "cook": 3921,
      "isqrt(": 3922,
      "err:e ": 3923,
      ";i=i+1){let c=s.get(i);if(": 3924,
      ")){<1": 3925,
      "url);": 3926,
      "i=mut.0 as u64;": 3927,
      ";f=solve(p0:$str):bool{let ": 3928,
      "$ok:rows ": 3929,
      "s.len;ii": 3930,
      "/10*10;": 3931,
      "dy*": 3932,
      "common": 3933,
      "left<right": 3934,
      "estimated": 3935,
      "record": 3936,
      " store.conn;": 3937,
      "(st": 3938,
      "i;let ": 3939,
      "s))};": 3940,
      "wai": 3941,
      "m=sum": 3942,
      "arr;let ": 3943,
      "exit(": 3944,
      "val=val": 3945,
      "not(": 3946,
      "disc.": 3947,
      "m=test;": 3948,
      "notification": 3949,
      "html;\"_\");": 3950,
      "left=mut.0;let right": 3951,
      "anonymisation": 3952,
      "wait(": 3953,
      "-left": 3954,
      "fra": 3955,
      "result.get(j": 3956,
      "+1;let ": 3957,
      "result=\"_\"};if(": 3958,
      "rows(": 3959,
      ";i=i+1){let val=": 3960,
      "}el{<\"_\";": 3961,
      "lower;\"_\")){": 3962,
      "substr(": 3963,
      "days:": 3964,
      "/10){let digit=": 3965,
      "b;a=": 3966,
      "wrapp": 3967,
      "notequal": 3968,
      " id:id;": 3969,
      "render": 3970,
      "chann": 3971,
      "print(": 3972,
      " update": 3973,
      "10.0;": 3974,
      "c+32": 3975,
      "ef": 3976,
      "lock": 3977,
      "countprime": 3978,
      ";f=first": 3979,
      "1){is": 3980,
      "};if(code=\"_\"){codepoint=10": 3981,
      "i+1;j<": 3982,
      "tr.t(\"_\");": 3983,
      "channel": 3984,
      " path": 3985,
      "758": 3986,
      "sel": 3987,
      "consent": 3988,
      "mod=": 3989,
      "=0){<": 3990,
      ";i=i+1){let ch=": 3991,
      "-1);": 3992,
      "ical": 3993,
      ":f64;m": 3994,
      "i32{": 3995,
      "pipeline;": 3996,
      "2036": 3997,
      "47758": 3998,
      "2337": 3999,
      "8547758": 4000,
      "m=acnd": 4001,
      "}};<count};f=": 4002,
      "approximateexp(": 4003,
      "922337": 4004,
      "matrix": 4005,
      "20368547758": 4006,
      "92233720368547758": 4007,
      " token": 4008,
      "gate": 4009,
      "odi": 4010,
      "zodi": 4011,
      "=mod": 4012,
      "m=numtostr": 4013,
      "ingzero": 4014,
      "digest": 4015,
      ".get(j));j=j": 4016,
      "(c-32": 4017,
      "(client": 4018,
      ".0);let ": 4019,
      "list:v false;$": 4020,
      ";f=me": 4021,
      "asserttrue": 4022,
      "transl": 4023,
      "broker": 4024,
      "s:$str;width:i64;fill:$str):$str{if(": 4025,
      "insertion": 4026,
      "s:f64;rhs:f64):": 4027,
      "79": 4028,
      ">1000){clamped=1000};<": 4029,
      "str.replace": 4030,
      ";f=sum": 4031,
      " if(is": 4032,
      "other;": 4033,
      "d:false;": 4034,
      "working.": 4035,
      "};<val};f=": 4036,
      "){<true};<false};f=is": 4037,
      "lp(let j=i+1;j<": 4038,
      "invocation": 4039,
      "zodiac": 4040,
      "b*": 4041,
      "r=mut.\"_\";": 4042,
      "s:i64;": 4043,
      "art": 4044,
      ".get(i)>": 4045,
      "state:$": 4046,
      "location": 4047,
      ")>0));": 4048,
      ";f=issorted": 4049,
      "ecar": 4050,
      "web": 4051,
      "register(": 4052,
      "sidecar": 4053,
      "fm": 4054,
      ");\"_\"))": 4055,
      "erpad": 4056,
      "ltype": 4057,
      "i=proto": 4058,
      "i64!$lokeerr{": 4059,
      "canc": 4060,
      "s=@();": 4061,
      "counter": 4062,
      "i=i+1){if(": 4063,
      "}}};<result};": 4064,
      "(n))};": 4065,
      "(x:i64;y": 4066,
      "=str.to": 4067,
      ">0 as u64": 4068,
      "obj;\"_\");": 4069,
      "len;j=j+1){let ": 4070,
      "c>96){if(c<123){result=result+": 4071,
      "val;other": 4072,
      "5.0);let ": 4073,
      "impl": 4074,
      "tooctal": 4075,
      "dx*dx": 4076,
      " avg": 4077,
      "(name:str;": 4078,
      "};result=result+": 4079,
      "0;m<": 4080,
      "met": 4081,
      ":i64;second": 4082,
      "ok=": 4083,
      "privacyp": 4084,
      "hex(": 4085,
      "candidate=2;": 4086,
      " result=": 4087,
      "(i+1": 4088,
      "0};f=": 4089,
      "<http.": 4090,
      "+1;i=i+1){let ": 4091,
      "){<\"_\"}el{let ": 4092,
      "rows.len": 4093,
      "net.": 4094,
      "req)": 4095,
      "lhs<": 4096,
      "itie": 4097,
      "ending": 4098,
      "=mut.0.0;if(": 4099,
      "found=mut.false;lp(let i=0;i<": 4100,
      "s.len;ii=ii+1){let ": 4101,
      "io.exit(": 4102,
      "swapped=": 4103,
      " title:": 4104,
      "schedule": 4105,
      "cancel": 4106,
      "io.exit(1": 4107,
      " Ok": 4108,
      "90;": 4109,
      "i=0){": 4110,
      "confir": 4111,
      "lp(let candidate=2;": 4112,
      "server;": 4113,
      "pow(base": 4114,
      "(\"_\")|{Ok:v v;Err:e ": 4115,
      "+2){let ": 4116,
      "string(": 4117,
      "octe": 4118,
      "ugin": 4119,
      "capitalizenext=false": 4120,
      "merged": 4121,
      " import": 4122,
      ")=0": 4123,
      "46": 4124,
      "gw": 4125,
      "y*": 4126,
      "y};": 4127,
      "coltype": 4128,
      "assp": 4129,
      "(n:i64):bool{if(": 4130,
      "check.": 4131,
      "<0){<\"_\"};<": 4132,
      "p0.len;let ": 4133,
      "apikey": 4134,
      "lesso": 4135,
      "daysinmonth": 4136,
      "+97": 4137,
      "lease": 4138,
      "i=reg": 4139,
      "inference": 4140,
      "medi": 4141,
      "analy": 4142,
      "first-": 4143,
      "array(": 4144,
      "n=first.len;let ": 4145,
      "paths": 4146,
      "len=s.len": 4147,
      "plugin": 4148,
      "+1};};<": 4149,
      "body;\"_\"){": 4150,
      "){result=result+\"_\";": 4151,
      "workspace": 4152,
      "=mut.1;lp(let i=2;": 4153,
      "latencyms:": 4154,
      "createdat": 4155,
      "twe": 4156,
      "sth": 4157,
      "+1};<": 4158,
      "res};": 4159,
      "lhs){": 4160,
      "minidx": 4161,
      ":f64):bool{if(": 4162,
      "122": 4163,
      " lp(let ii": 4164,
      "str.fromi64(": 4165,
      "betwe": 4166,
      ".len;let result=mut.\"_\";": 4167,
      "db.row": 4168,
      "installer;": 4169,
      "count:0;": 4170,
      "printl": 4171,
      ")=tmp;};};": 4172,
      "io.printl": 4173,
      " tool": 4174,
      "-97": 4175,
      "2.0;": 4176,
      "80": 4177,
      "inc.": 4178,
      "ross": 4179,
      "val){<": 4180,
      " if(v){<": 4181,
      "second;": 4182,
      "col:\"_\";": 4183,
      "config:$": 4184,
      "body(": 4185,
      ")){<true": 4186,
      "url;\"_\");": 4187,
      "){<0 as u64": 4188,
      "val<other": 4189,
      "str.tobytes(": 4190,
      "countvowels(s:$str):": 4191,
      "){<false};<true};": 4192,
      "compressed": 4193,
      "0;0;0;0;0;0;0;0;0;0;0;0;0;0;0;0;0;0;0;0;0;0;0;0;": 4194,
      ":loke.platform.": 4195,
      "trailingzero": 4196,
      "between": 4197,
      " disk": 4198,
      "embed": 4199,
      "sine": 4200,
      " let store": 4201,
      "}el{res=": 4202,
      "tracker": 4203,
      "acces": 4204,
      "boolnot(": 4205,
      "rightpad": 4206,
      "lhs=mut.": 4207,
      "(p;q": 4208,
      "current=\"_\"": 4209,
      "message:msg": 4210,
      "d:true;": 4211,
      "interse": 4212,
      "lettergrade": 4213,
      ";i=i+1){result=result+fill": 4214,
      "detectresult{": 4215,
      "action:\"_\";": 4216,
      "entitytype;\"_\")){": 4217,
      "result=mut.false;if(": 4218,
      "clean": 4219,
      "io.exit(1)};let ": 4220,
      " line": 4221,
      " provider": 4222,
      " timestamp": 4223,
      ")*2": 4224,
      ")|{Ok:": 4225,
      "lend": 4226,
      "onic": 4227,
      "isspace": 4228,
      "acc=": 4229,
      "perm": 4230,
      "zz=": 4231,
      ":u64;other": 4232,
      "ownership": 4233,
      "c=32){if(": 4234,
      "classifyangle": 4235,
      "removepunct(": 4236,
      ":str):$result{<$result{name:n;passed": 4237,
      " current": 4238,
      "oauth": 4239,
      "up(": 4240,
      "restore": 4241,
      "):void{": 4242,
      "m=p": 4243,
      "m=impl": 4244,
      "cho": 4245,
      "s=$": 4246,
      "shell": 4247,
      "end=": 4248,
      "array": 4249,
      "lhs.get(i);if(": 4250,
      "registry{": 4251,
      "=mut.1.0;": 4252,
      "profile{": 4253,
      "flags.": 4254,
      "guard;f=to": 4255,
      "num2=num2": 4256,
      "r.passed){let ": 4257,
      "lp(let i=0;i<n;i=i+1){let c=s.get(i as u64);let ": 4258,
      "infer": 4259,
      " createdat:": 4260,
      "cookie": 4261,
      "lessorequal": 4262,
      "(rhs": 4263,
      "+right": 4264,
      "45": 4265,
      "4);": 4266,
      "val=0": 4267,
      "filename": 4268,
      "result=mut.false;": 4269,
      "difference": 4270,
      "offlo": 4271,
      "k=k+1){let ": 4272,
      ">c){<": 4273,
      " as u8;0 as u8;0 as u8;0 as u8;0 as u8;0 as u8;0 as u8;0 as u8;0 as u8;0 as u8;0 as u8;0 as u8;0 as u8;0 as u8;0 as u8;0 as u8;0": 4274,
      "failed": 4275,
      "already": 4276,
      "frame": 4277,
      "inference.": 4278,
      "0;0;0;0;0;0;0;0;0;0;0;0;0;0;0;0;0;0;0;0;0;0;0;0;0;": 4279,
      " enable": 4280,
      "=json.str(": 4281,
      "cmp": 4282,
      "dl": 4283,
      "full": 4284,
      "ha": 4285,
      "elper": 4286,
      "):i64{let ": 4287,
      "f=is": 4288,
      "len-1": 4289,
      "tent": 4290,
      "assig": 4291,
      "digi": 4292,
      " as i64);": 4293,
      "m=mcp": 4294,
      "viability": 4295,
      "filte": 4296,
      "erorequal": 4297,
      ":true;message": 4298,
      "greaterorequal": 4299,
      "json.dec(\"_\")|{Ok:v v;Err:e ": 4300,
      "i=i+1 as u64){let ": 4301,
      "lessth": 4302,
      "){<30};if(month=": 4303,
      "json.dec(\"_\")|{Ok:v v;Err:e io.exit(1)};let ": 4304,
      "(prompt": 4305,
      "=(": 4306,
      "c;f=": 4307,
      "r ": 4308,
      "ry": 4309,
      "sespace": 4310,
      "thelper": 4311,
      "probe": 4312,
      "sum=mut.0;": 4313,
      "actual": 4314,
      "startedat": 4315,
      "port;": 4316,
      "fibonacci(n:i64):i64{if(n=0": 4317,
      ";f=main": 4318,
      "}el{if(c=97": 4319,
      " skip": 4320,
      "first>second": 4321,
      "m=example;i=": 4322,
      "))};f=combined(s:$str):i64{let a=": 4323,
      "collapsespace": 4324,
      "expires": 4325,
      " note": 4326,
      "!found": 4327,
      "$http": 4328,
      "20.0;": 4329,
      "emitter": 4330,
      "ggest": 4331,
      "suggest": 4332,
      "make": 4333,
      "currentword=": 4334,
      ")){<s": 4335,
      ".len;k=k+1){if(": 4336,
      " str.concat(str.fromi32(": 4337,
      "sortby": 4338,
      "squares": 4339,
      "output;": 4340,
      "lessthan": 4341,
      ";second": 4342,
      "x2": 4343,
      "m=isempty": 4344,
      "arr:@i64;": 4345,
      "ish": 4346,
      "ded=": 4347,
      "fall": 4348,
      ";f=count": 4349,
      ")){count=count+1": 4350,
      "maj": 4351,
      ";\"_\"))))": 4352,
      ":i64;hi": 4353,
      "namespace": 4354,
      "(po": 4355,
      "json.i64(row": 4356,
      "parts": 4357,
      "capnext": 4358,
      "=mt json.getstr(": 4359,
      "}el{if(!(cents": 4360,
      "result=mut.\"_\";let capitalizenext": 4361,
      " if(t.assert(str.contains(": 4362,
      "body=str.concat(": 4363,
      " j=str.concat(j;str.concat(\"_\";str.concat(": 4364,
      ":bool):bool{if(": 4365,
      "applied": 4366,
      "row{val": 4367,
      "(lhs;rhs": 4368,
      " risk": 4369,
      "md": 4370,
      "q=0;": 4371,
      "r=mut.0.0;lp(let i=0;i<": 4372,
      "wa": 4373,
      "\"_\";let ": 4374,
      "alace": 4375,
      "i=s:core.": 4376,
      "f=list": 4377,
      "id:str):$": 4378,
      "lo:i64;hi": 4379,
      "(palace": 4380,
      " if(str.len": 4381,
      "httpcategory(": 4382,
      "=str.concat(p": 4383,
      "hasnegative": 4384,
      "ner;": 4385,
      "path);": 4386,
      ".get(i as u64);": 4387,
      "=c+32": 4388,
      "local:": 4389,
      "accumulate(arr:@f64):f64{let ": 4390,
      "categorie": 4391,
      "temp=temp": 4392,
      "cnt=cnt": 4393,
      "():$void{let ": 4394,
      "(cfg:$": 4395,
      " if(i>count){": 4396,
      "isleapyear(y": 4397,
      "r=mut.0.0;lp(let i=0;i<arr.len as i64;i=i+1){r=r+": 4398,
      "accumulate(arr:@f64):f64{let r=mut.0.0;lp(let i=0;i<arr.len as i64;i=i+1){r=r+": 4399,
      " t.assert(": 4400,
      "3.": 4401,
      "pull": 4402,
      "ude": 4403,
      "first;if(": 4404,
      "101){zc=true}el{if(c=": 4405,
      "stop": 4406,
      "tempcategory": 4407,
      "odulo": 4408,
      "111){zc=true}el{if(c=": 4409,
      "spaceto": 4410,
      "};<count};": 4411,
      "val>other": 4412,
      "){zc=true}el{if(cl=": 4413,
      "};if(code=\"_\"){codepoint=11": 4414,
      "1){zc=true}el{if(cl=": 4415,
      "clamp(x": 4416,
      "iteri": 4417,
      "105){zc=true}el{if(c=": 4418,
      "){zc=true}el{if(c=101){zc=true}el{if(c=": 4419,
      "dsar": 4420,
      "guess=": 4421,
      "lp(let x=0;": 4422,
      "}el{if(c=97){zc=true}el{if(c=101){zc=true}el{if(c=": 4423,
      "row{vals:@(": 4424,
      "111){zc=true}el{if(c=117){zc=true}}}}": 4425,
      "105){zc=true}el{if(c=111){zc=true}el{if(c=117){zc=true}}}}": 4426,
      "}el{if(c=97){zc=true}el{if(c=101){zc=true}el{if(c=105){zc=true}el{if(c=111){zc=true}el{if(c=117){zc=true}}}}": 4427,
      "c;if(": 4428,
      "k;": 4429,
      "isneg": 4430,
      "charat": 4431,
      "p0.get(": 4432,
      "=str.contains(": 4433,
      "latest": 4434,
      "year/": 4435,
      "dummy=": 4436,
      "collatzsteps(": 4437,
      "lp(let m=0;m<": 4438,
      "discovery": 4439,
      "ultiplymod": 4440,
      " entrie": 4441,
      "+fill": 4442,
      "-lhs": 4443,
      "3)){check=true}};if(lhs=": 4444,
      "bac": 4445,
      "id)": 4446,
      "onent": 4447,
      "val:f64;": 4448,
      "countchar": 4449,
      "check{": 4450,
      "$err{": 4451,
      "128": 4452,
      ";f=solve(p0:$str):i64{let ": 4453,
      "(s)};": 4454,
      "countupper(s": 4455,
      "t as$str": 4456,
      "topic": 4457,
      "network": 4458,
      "){if(rhs<23){": 4459,
      "){if(!(rhs<23)){check=true}};if(lhs=": 4460,
      "=mut.true;let ": 4461,
      "){if(rhs<23){check=true}}};if(idx=": 4462,
      ".run": 4463,
      ".push(": 4464,
      "vis": 4465,
      "median": 4466,
      "isleap": 4467,
      "stool": 4468,
      "digits=": 4469,
      "1;lp(let i=0;i<": 4470,
      "url:str;": 4471,
      ")){if(!(c>": 4472,
      "attrs=str.concat(": 4473,
      " test.assert(": 4474,
      "arr.get(i);};<": 4475,
      "relui": 4476,
      "=0.0;if(": 4477,
      "lines=lines+@(": 4478,
      "9223372036854775807": 4479,
      "&h": 4480,
      "free": 4481,
      "sim": 4482,
      "y};f=": 4483,
      "result=result+1": 4484,
      "perfe": 4485,
      ":$str):$str{<": 4486,
      "tpo": 4487,
      ":\"_\"}};": 4488,
      "){result=true};if(": 4489,
      "str.fromf32(": 4490,
      "i=mut.0;lp(let j=0;j<": 4491,
      "(num1:f64;num2": 4492,
      "power(": 4493,
      "num1=num1": 4494,
      "(store:$": 4495,
      "costusd": 4496,
      "clamp(x;": 4497,
      "anualtoupper": 4498,
      " is ": 4499,
      "feedback.": 4500,
      ")}el{": 4501,
      "+i": 4502,
      "9){": 4503,
      ");};<result};": 4504,
      "inue": 4505,
      "get(req:i64):i64{": 4506,
      "val*": 4507,
      "ine;": 4508,
      "pose": 4509,
      "n;j=j+1){let ": 4510,
      " results=str.arraypush(results;asserttrue(\"_\";str.len(": 4511,
      "even": 4512,
      "t=$result{": 4513,
      "matched": 4514,
      "true;true;true;true;": 4515,
      "f=asserteq(n:str;got": 4516,
      "perfect": 4517,
      "f=asserteq(n:str;got:str;want:str):$result{": 4518,
      "+result": 4519,
      "d ": 4520,
      "j+1": 4521,
      "rand": 4522,
      "i=assert": 4523,
      "};if(income": 4524,
      ":std.assert": 4525,
      "other.len": 4526,
      "}el{if(p": 4527,
      "req);": 4528,
      "stats{": 4529,
      "len=currentword": 4530,
      "passed:bool;": 4531,
      "c=32){": 4532,
      "complete": 4533,
      "page.moke.": 4534,
      "def{": 4535,
      "i=assert:std.assert": 4536,
      "i=assert:std.assert;": 4537,
      " html": 4538,
      "+26": 4539,
      "60": 4540,
      "j);": 4541,
      "sv": 4542,
      ");lp(let i=0;i<": 4543,
      " let found": 4544,
      " let sql": 4545,
      "}el{current=current": 4546,
      "m=last": 4547,
      "tostr(": 4548,
      "){let tmp=": 4549,
      "expcopy": 4550,
      "widget": 4551,
      "};if(!(weight": 4552,
      "modelid;\"_\")){": 4553,
      " mt result{": 4554,
      ":i64):$str{let result=mut.\"_\";": 4555,
      "val=other){<1": 4556,
      "installer": 4557,
      "classifynum": 4558,
      "){<true}el{<false}": 4559,
      "day(": 4560,
      "distance(x": 4561,
      " if(i>n){br}el{": 4562,
      "capability{": 4563,
      "spacetodash": 4564,
      ":opts.": 4565,
      "ible": 4566,
      "send": 4567,
      " let fail": 4568,
      ":\"_\";value:\"_\"}": 4569,
      ".get(j as u64": 4570,
      "/2}el{": 4571,
      ":i64):bool{<": 4572,
      ":@f64):@f64{let ": 4573,
      ")/2;let ": 4574,
      "(n:str;v:bool):$result{": 4575,
      " out.printline(\"_\");": 4576,
      "armonic": 4577,
      "quote": 4578,
      "overall": 4579,
      "mod5=0){<\"_\"};<": 4580,
      "abbrev": 4581,
      "<pass(\"_\")": 4582,
      "zz=zz": 4583,
      "-n": 4584,
      ");\"_\"));": 4585,
      "sume": 4586,
      "+1)as u64": 4587,
      "\"_\";\"_\";cid);": 4588,
      "}el{<fail(n": 4589,
      "){result=\"_\"}el{if(": 4590,
      ":core.agents.": 4591,
      "upperbound": 4592,
      "){islower": 4593,
      "/10*10": 4594,
      ";\"_\")||": 4595,
      ":false;message:msg": 4596,
      "next;};<": 4597,
      "palace;": 4598,
      "pass(n)}el{<fail(n": 4599,
      " requestid:": 4600,
      "(scores);let ": 4601,
      "/i)*": 4602,
      " column:": 4603,
      "0.0){<0.": 4604,
      "dummy=dummy": 4605,
      " new": 4606,
      " content": 4607,
      ")}": 4608,
      "harmonic": 4609,
      "n>": 4610,
      "yam": 4611,
      "lp(let i=0;i+1<": 4612,
      "){if(second": 4613,
      "other};": 4614,
      "n=p": 4615,
      "abel": 4616,
      ";};};let ": 4617,
      "padding": 4618,
      ":core.models.": 4619,
      ":core.storage.db;": 4620,
      ":core.mcp.protocol;": 4621,
      "lated": 4622,
      "c-32": 4623,
      "winddir": 4624,
      "toroman(first": 4625,
      "m=padleft": 4626,
      " let url=str.concat(": 4627,
      "elapsed": 4628,
      "countupper(s:$str):i64{let n=s.len;let count=mut.0;lp(let i=0;i<n;i=i+1){let c=s.get(i);if(c>64){if(c<91){count=count+1}}};<count};f=": 4629,
      "i=proto:core.mcp.protocol;": 4630,
      ":true;message:\"_\"}};": 4631,
      "passed:bool;message": 4632,
      "c:std.": 4633,
      "zer": 4634,
      "result.get(j+1": 4635,
      "set.": 4636,
      "countdivisor": 4637,
      "));};<result};": 4638,
      "s(val": 4639,
      "ingu": 4640,
      "continue": 4641,
      "arr.get(i+1": 4642,
      "div100": 4643,
      "div400": 4644,
      " as f64;let ": 4645,
      "mlingu": 4646,
      "iseven": 4647,
      "eqb": 4648,
      "f=asserttrue": 4649,
      "reluf": 4650,
      "quotient": 4651,
      "shippingcost(": 4652,
      ";i=i+1){if(arr.get(i)=": 4653,
      "suggestion": 4654,
      "fallback": 4655,
      "sumeven": 4656,
      " last": 4657,
      "<0.0){": 4658,
      "ffi": 4659,
      "ied": 4660,
      "dev": 4661,
      "exten": 4662,
      "=true}};let ": 4663,
      "serve": 4664,
      "=mut.0;let b": 4665,
      "n;m=m": 4666,
      "$ok:v": 4667,
      ":i64):i64{let count=mut.0;": 4668,
      "}};};<": 4669,
      "raw=": 4670,
      "endpoint": 4671,
      "ollama;": 4672,
      ");};};<result};": 4673,
      "installed": 4674,
      "response(": 4675,
      "p1;let ": 4676,
      "system": 4677,
      "(year": 4678,
      "1:f64;": 4679,
      "=1 as u64": 4680,
      "a=mut.0;let b": 4681,
      "gdp": 4682,
      "){min": 4683,
      " let n": 4684,
      "@()};let ": 4685,
      "exo": 4686,
      "first){": 4687,
      "num1.len": 4688,
      "line);": 4689,
      "type;\"_\")){": 4690,
      "digit(": 4691,
      "(x:i64):bool{let ": 4692,
      "s.get(m": 4693,
      "m=core.optimiser.": 4694,
      "score=": 4695,
      "http.post": 4696,
      "rows;row": 4697,
      "!$err{let ": 4698,
      "digitalsum": 4699,
      "/i)*i": 4700,
      "<num": 4701,
      "js;\"_\")": 4702,
      "p=mut.0;let ": 4703,
      "aris": 4704,
      "):bool{let ": 4705,
      "first.get(i);let ": 4706,
      "char=\"_\"){": 4707,
      "32){": 4708,
      "second;let ": 4709,
      "service": 4710,
      ":f64):$str{let ": 4711,
      "passed=": 4712,
      "keyword": 4713,
      "comparis": 4714,
      ":core.policy.": 4715,
      "resp{": 4716,
      " if(str.contains(lower;\"_\")){": 4717,
      "i64{let n=s.len;let m=mut.0;": 4718,
      "compress": 4719,
      "(ds;": 4720,
      " str.contains(js;\"_\")": 4721,
      "payload": 4722,
      "celsius": 4723,
      " server": 4724,
      " prompt": 4725,
      "+result;": 4726,
      ">n": 4727,
      ">0.0": 4728,
      "qrt": 4729,
      "ration": 4730,
      "x:f64):f64{let ": 4731,
      " let pass": 4732,
      " let resp=": 4733,
      "lp(let zz": 4734,
      "/2)*2": 4735,
      "hemer": 4736,
      "$ok:obj": 4737,
      "goo": 4738,
      "provider:$": 4739,
      "doctor": 4740,
      "eqab": 4741,
      "p0.len;i=i+1){let c=p0.get(i);if(": 4742,
      "lp(let i=0;i<arr.len;i=i+1){": 4743,
      "5.0;5.0);let ": 4744,
      "evalu": 4745,
      "adapterid": 4746,
      "$err:e$err($storageerr(\"_\"))": 4747,
      "ephemer": 4748,
      "c>47){if(c<58){": 4749,
      "considered": 4750,
      "octet": 4751,
      "b=mut.": 4752,
      "border": 4753,
      "df.": 4754,
      "e)": 4755,
      "q=mut.0;let ": 4756,
      "or;": 4757,
      "onal": 4758,
      ";\"_\"))": 4759,
      "=str.concat(html;\"_\");": 4760,
      ".len;lp(let j=0;j<": 4761,
      "base;let ": 4762,
      "steps=": 4763,
      "sensitivity;": 4764,
      "local;": 4765,
      "warning": 4766,
      "@(\"_\";\"_\";\"_\";\"_\";\"_\";\"_\";\"_\";\"_\";\"_\";\"_\";\"_\";\"_\";\"_\";\"_\";\"_\";\"_\";\"_\";\"_\");": 4767,
      "dispatcher;": 4768,
      "encoded": 4769,
      "){<s};let ": 4770,
      "public": 4771,
      "rightpadspace": 4772,
      "attrs=str.concat(attr": 4773,
      " html=str.concat(html;\"_\");": 4774,
      ":false;message:msg}};": 4775,
      "harmonicsum": 4776,
      ")){<\"_\"": 4777,
      "restart": 4778,
      "s:0;": 4779,
      "num-(": 4780,
      "lp(let i=0;i<right": 4781,
      "exce": 4782,
      "left.len": 4783,
      "low=mid": 4784,
      "log.new": 4785,
      "newcount": 4786,
      "keychain": 4787,
      "(x:i64):bool{<is": 4788,
      "lhs=2": 4789,
      "freq=": 4790,
      "freqmap": 4791,
      "scar": 4792,
      "llmlingu": 4793,
      ")as i64": 4794,
      "centur": 4795,
      "centerpad": 4796,
      " if(!r.passed){let ": 4797,
      ":i64):@$str{let ": 4798,
      "=true}el{if(capitalizenext": 4799,
      "history": 4800,
      "commonsuffix": 4801,
      "fmt": 4802,
      "+dy*": 4803,
      "cer": 4804,
      "f;": 4805,
      "lcm": 4806,
      "i=f": 4807,
      "as ": 4808,
      " let j": 4809,
      " let p=": 4810,
      ";f=bool": 4811,
      "d=true;": 4812,
      "key);": 4813,
      "last=": 4814,
      ":i64):$str{let clamped=mut.": 4815,
      ";\"_\")}": 4816,
      "items": 4817,
      ":u64):bool{if(": 4818,
      "policy{": 4819,
      "eqac": 4820,
      "hooks;": 4821,
      "=mut.@(0;0;0;0;0;0;0;0;0;0;0;0;0;0;0;0;0;0;0;0;0;0;0;0;0;": 4822,
      "\"_\"+result": 4823,
      "y=y+": 4824,
      "$err:e$": 4825,
      "auth.": 4826,
      "f32;": 4827,
      "capitalizenext=true}el{if(capitalizenext": 4828,
      "/i as f64;": 4829,
      "bool{<!(": 4830,
      "(s:$str):$str{if(s.len=0){<\"_\"};<": 4831,
      "trigger": 4832,
      "y-y/": 4833,
      "-year/": 4834,
      "1:f64;y": 4835,
      "};}": 4836,
      "i=pro": 4837,
      "i=out:": 4838,
      "toke.": 4839,
      ".get(i+1": 4840,
      "left:i64;right": 4841,
      "rhs.len": 4842,
      "area": 4843,
      "spl": 4844,
      "}};<true": 4845,
      "s:@f64": 4846,
      "i=json:std.json;i=io:std.io": 4847,
      "label(": 4848,
      "description:\"_\";": 4849,
      "toon.": 4850,
      "cli.output;": 4851,
      "16);": 4852,
      "removedup": 4853,
      ":f64;y2": 4854,
      "bmicat(": 4855,
      "io.println(": 4856,
      "x2:f64;y2": 4857,
      "distance(x1:f64;y": 4858,
      "sumevenidx": 4859,
      "1:f64;x2:f64;y2": 4860,
      "i=out:cli.output;": 4861,
      "distance(x1:f64;y1:f64;x2:f64;y2": 4862,
      "(code": 4863,
      "()};": 4864,
      "2.0": 4865,
      "mac": 4866,
      "p.get(i);let ": 4867,
      "){valid": 4868,
      "result=mut.0;": 4869,
      "on;": 4870,
      "tojson": 4871,
      ";f=gcd": 4872,
      "));};let ": 4873,
      "tests.": 4874,
      "col:i64;": 4875,
      "out=": 4876,
      "){<false};};<": 4877,
      " if(str.eq(s;": 4878,
      "component": 4879,
      ".len;j=j+1){let ": 4880,
      "():void{": 4881,
      "submit": 4882,
      "(left;": 4883,
      "first=first": 4884,
      "agonal": 4885,
      "longest=current": 4886,
      "(a;": 4887,
      "trimmed=": 4888,
      "f=main():$void{let ": 4889,
      "anonymi": 4890,
      "clamped=clamp(x;": 4891,
      "normalize": 4892,
      "write(": 4893,
      "some:": 4894,
      "};<x};f=": 4895,
      "1){isvowel=true};if(c=": 4896,
      "extension": 4897,
      "anonymised": 4898,
      " kind": 4899,
      " palace.conn;": 4900,
      ":str.concat(\"_\";": 4901,
      ";}el{": 4902,
      "create": 4903,
      "s){": 4904,
      "release": 4905,
      "){}el{": 4906,
      "+13;let ": 4907,
      "};<c": 4908,
      "isodd=": 4909,
      "len=str.len(": 4910,
      "m=merge": 4911,
      "found)){": 4912,
      "};};};<result};": 4913,
      "toolname;": 4914,
      "sub(": 4915,
      "i=i+1}": 4916,
      "listen": 4917,
      ";f=merge": 4918,
      "printable": 4919,
      "rhs=rhs+": 4920,
      "normalize(": 4921,
      "process.spaw": 4922,
      "titlecase(s:$str):$str{let ": 4923,
      "0.0-5.0;5.0);let ": 4924,
      "clamped=clamp(x;0.0-5.0;5.0);let ": 4925,
      " handle": 4926,
      "29": 4927,
      "=1": 4928,
      "icon": 4929,
      "m=strlen": 4930,
      "book": 4931,
      ")){count=count+1;": 4932,
      "checke": 4933,
      "rhs};": 4934,
      "(p:$str;q": 4935,
      "sortedright": 4936,
      "m=me": 4937,
      ":f64;maxv": 4938,
      "disable": 4939,
      "(first;second": 4940,
      ":i64):i64{if(n=0": 4941,
      "$err:e \"_\"": 4942,
      ">0)){": 4943,
      ">0){if(": 4944,
      "year-year/": 4945,
      "s;\"_\")}el{};": 4946,
      "<123){let ": 4947,
      "confidence:0.8": 4948,
      "Err:e$": 4949,
      "minv:f64;maxv": 4950,
      "rating": 4951,
      "acc=acc": 4952,
      "(deg": 4953,
      "40;": 4954,
      "fs;": 4955,
      "\"_\";}el{": 4956,
      "ong": 4957,
      "val+": 4958,
      "=0)){": 4959,
      "other=0.0;if(": 4960,
      ":i64;lo:i64;hi": 4961,
      "line.": 4962,
      ":v \"_\"": 4963,
      "(celsi": 4964,
      "expval=": 4965,
      "(val:u64;other": 4966,
      "=mut.false;lp(let i=0;i<": 4967,
      "};f=isvalid": 4968,
      "};f=isleapyear": 4969,
      "*2.0;let ": 4970,
      "pipe": 4971,
      "result.push(": 4972,
      ":f64):f64{let term=mut.1.0;let ": 4973,
      ":u64;second": 4974,
      " let e=": 4975,
      "negative2": 4976,
      "c-65": 4977,
      ")};f=fib": 4978,
      "val<min": 4979,
      "contextwindow": 4980,
      "err:e$err($": 4981,
      "fficl": 4982,
      "removedupchar": 4983,
      " k": 4984,
      " check": 4985,
      ":json.str(row;\"_\");": 4986,
      "block": 4987,
      "nal": 4988,
      "who": 4989,
      ");\"_\")));": 4990,
      "=make": 4991,
      "elin": 4992,
      "id=": 4993,
      "trunc": 4994,
      "\"_\";\"_\";\"_\";": 4995,
      "-1);let ": 4996,
      "-1)as u64": 4997,
      "cols;": 4998,
      "(\"_\";\"_\"));": 4999,
      "=\"_\"};if(": 5000,
      "ssa": 5001,
      ":v true;": 5002,
      "totalto": 5003,
      "<$err(": 5004,
      ":str};": 5005,
      "maxv){<": 5006,
      "internal": 5007,
      ":u64;num2": 5008,
      "toon;": 5009,
      "removespace": 5010,
      "clamp(val:f64;": 5011,
      "t as u64": 5012,
      "hw.": 5013,
      "whole": 5014,
      "/16": 5015,
      "ice": 5016,
      "trend": 5017,
      "}}el{<\"_\"": 5018,
      "arow": 5019,
      "f=fail": 5020,
      " let update": 5021,
      "m=0": 5022,
      "m=repeat": 5023,
      "entagonal": 5024,
      "};};};if(": 5025,
      ":$str;right": 5026,
      "score:0.": 5027,
      "s=@(note": 5028,
      ":@i64;second": 5029,
      "findmissing": 5030,
      "high-": 5031,
      ":@u64;": 5032,
      "f=main():i64{": 5033,
      " mt db.queryparams(": 5034,
      "}}el{result=result+(c as$str)": 5035,
      "v){<minv": 5036,
      "custo": 5037,
      "uco.": 5038,
      "expval-1.0;let ": 5039,
      "expval+1.0;": 5040,
      "debug(": 5041,
      "engage": 5042,
      "metad": 5043,
      " notes=@(note": 5044,
      "minv:f64;maxv:f64):f64{if(": 5045,
      "maxv){<maxv": 5046,
      " auth": 5047,
      " ramgb:": 5048,
      "3;\"_\");": 5049,
      "3.0;": 5050,
      "ci": 5051,
      "hay": 5052,
      "ut(": 5053,
      "lob": 5054,
      "unified": 5055,
      "env;": 5056,
      ");let num=": 5057,
      "n=s.len;": 5058,
      "=\"_\"){if(": 5059,
      "word;": 5060,
      "idx=j": 5061,
      ":i64):bool{": 5062,
      "){result=true;": 5063,
      "support": 5064,
      "matchlen": 5065,
      "<0.0){<0.0": 5066,
      "unix": 5067,
      "process.wait(": 5068,
      "m=padright": 5069,
      "progres": 5070,
      "lp(let k=0;k<2": 5071,
      " id:str;": 5072,
      "2-y": 5073,
      "=dx*dx": 5074,
      "hassp": 5075,
      "ooke.": 5076,
      "re.": 5077,
      "\"_\")};": 5078,
      "set=": 5079,
      " let cost": 5080,
      "m=sign": 5081,
      ")))};": 5082,
      "s.len()){": 5083,
      "rhs<": 5084,
      "idx=c-97": 5085,
      "};<result};f=safe": 5086,
      "(first:f64;second": 5087,
      "modelid:str;": 5088,
      "m=tests.unit.browser.": 5089,
      "queryop": 5090,
      "column;": 5091,
      "zw=0){let ": 5092,
      "existing": 5093,
      "/denom};f=": 5094,
      "adjusted": 5095,
      "totype(x": 5096,
      "m=acnd00": 5097,
      "=mt json.getstr(body;\"_\"){": 5098,
      "stools:": 5099,
      "<$err($": 5100,
      "haystack": 5101,
      "supportstools:": 5102,
      "m=tests.unit.browser.test": 5103,
      "blan": 5104,
      "c as$str;": 5105,
      "dy=y": 5106,
      "dx=x": 5107,
      "ms);": 5108,
      "ost": 5109,
      "q=mut.0;lp(let i=0;i<": 5110,
      "least": 5111,
      "result.get(j)=": 5112,
      "d.parse": 5113,
      "\"_\";\"_\";\"_\";\"_\";\"_\");": 5114,
      "resrev": 5115,
      "current>": 5116,
      "regul": 5117,
      "saf": 5118,
      " results=str.arraypush(results;asserttrue(\"_\";is": 5119,
      "request{": 5120,
      "msg);": 5121,
      "s:@str;": 5122,
      "ollamar": 5123,
      "base=": 5124,
      "clamped*2.0;let ": 5125,
      "high=mid": 5126,
      "elem);": 5127,
      "i=db:core.storage.db;": 5128,
      ")){<false};if(!(": 5129,
      "};if(val>maxv){<maxv": 5130,
      "s(s:$str):$str{let n=s.len;let result=mut.\"_\";": 5131,
      "};<sum};f=clamp(val:f64;": 5132,
      "simpleencode": 5133,
      "};<val};f=tanhapprox(x:f64):f64{let ": 5134,
      "ephemeral": 5135,
      "val<minv){<minv": 5136,
      "minv:f64;maxv:f64):f64{if(val<minv){<minv": 5137,
      "};if(val>maxv){<maxv};<val};f=tanhapprox(x:f64):f64{let ": 5138,
      "};<sum};f=clamp(val:f64;minv:f64;maxv:f64):f64{if(val<minv){<minv": 5139,
      "};<sum};f=clamp(val:f64;minv:f64;maxv:f64):f64{if(val<minv){<minv};if(val>maxv){<maxv};<val};f=tanhapprox(x:f64):f64{let ": 5140,
      "(result": 5141,
      "(ch": 5142,
      "(conn": 5143,
      "19": 5144,
      "ms;": 5145,
      "lto": 5146,
      "ata": 5147,
      "=mut.$": 5148,
      " let body": 5149,
      " let cid": 5150,
      ":std.math": 5151,
      "unning": 5152,
      "n=true};if(c=\"_\"){": 5153,
      "}el{<true": 5154,
      "x=other": 5155,
      "text=": 5156,
      "toolpanel": 5157,
      "pipelin": 5158,
      "vernight": 5159,
      ":@i64;m": 5160,
      "$ok:v 0;": 5161,
      ":@u64):@u64{let ": 5162,
      "numtostr(": 5163,
      "expapprox(y": 5164,
      "s:@i64;": 5165,
      "math:std.math": 5166,
      "speedtoks:": 5167,
      "timeofday(": 5168,
      ":str):@$": 5169,
      " let fail=mut.0;": 5170,
      " let pass=mut.0;": 5171,
      "/i as f64;sum=sum+term;": 5172,
      "$locale": 5173,
      "4){": 5174,
      "c1": 5175,
      "p.get(i);if(": 5176,
      "udent": 5177,
      "alc": 5178,
      "0;k=k+1){": 5179,
      " let col": 5180,
      "m=am": 5181,
      " if(total": 5182,
      "}}}el{if(": 5183,
      "parity": 5184,
      "len=current": 5185,
      "<0){<\"_\"};if(": 5186,
      "+1){let rem=": 5187,
      "tokens;": 5188,
      "text;\"_\");": 5189,
      ";f=solve(p0:$str;p1": 5190,
      "(arr:@i64):f64{let ": 5191,
      ":@f64):f64{let ": 5192,
      "process:std.": 5193,
      "item;\"_\");": 5194,
      ".get(idx);if(": 5195,
      "mid=low": 5196,
      " modelid:modelid;": 5197,
      "delta": 5198,
      "p.len;i=i+1){q=q": 5199,
      "<http.res.": 5200,
      "(rhs as$str)": 5201,
      "squaresn": 5202,
      ":f64):f64{let term=mut.1.0;let sum=mut.1.0;let ": 5203,
      "high-low": 5204,
      " version": 5205,
      "2-x": 5206,
      "=apply": 5207,
      "y/i as f64;sum=sum+term;": 5208,
      "=mut": 5209,
      "f=h": 5210,
      " let state=": 5211,
      "m=wordcount": 5212,
      "meta": 5213,
      "low=mut.0;let ": 5214,
      "modelid;\"_\"));": 5215,
      "sqrt": 5216,
      "i=i+1};<sum};f=clamp(val:f64;minv:f64;maxv:f64):f64{if(val<minv){<minv};if(val>maxv){<maxv};<val};f=tanhapprox(x:f64):f64{let ": 5217,
      "registry.": 5218,
      "pipelinestage": 5219,
      "rem=0){": 5220,
      "execut": 5221,
      "split(\"_\");let ": 5222,
      "@(\"_\";\"_\";\"_\";\"_\";\"_\";\"_\";\"_\";\"_\";\"_\";\"_\";\"_\";\"_\";\"_\";\"_\";\"_\";\"_\";\"_\";\"_\";\"_\";\"_\";\"_\";\"_\";\"_\";\"_\";": 5223,
      "required": 5224,
      "99999999": 5225,
      "numtostr(x": 5226,
      "countdigitsinstr": 5227,
      "i=mut.0;let j": 5228,
      "term=term*y/i as f64;sum=sum+term;": 5229,
      "){<0.0};let clamped=clamp(x;0.0-5.0;5.0);let ": 5230,
      "denom=expval+1.0;": 5231,
      "doubled);let num=": 5232,
      "expapprox(doubled);let num=": 5233,
      "i=mut.1;lp(let k=0;k<2": 5234,
      "doubled=clamped*2.0;let ": 5235,
      "correlationid();": 5236,
      "<num/denom};f=": 5237,
      "steps=steps": 5238,
      "log.newcorrelationid();": 5239,
      "other=0.0;if(x=other": 5240,
      "expval=expapprox(doubled);let num=": 5241,
      "expval-1.0;let denom=expval+1.0;": 5242,
      "expapprox(y:f64):f64{let term=mut.1.0;let sum=mut.1.0;let ": 5243,
      "0;k=k+1){term=term*y/i as f64;sum=sum+term;": 5244,
      "i=i+1};<sum};f=clamp(val:f64;minv:f64;maxv:f64):f64{if(val<minv){<minv};if(val>maxv){<maxv};<val};f=tanhapprox(x:f64):f64{let other=0.0;if(x=other": 5245,
      "){<0.0};let clamped=clamp(x;0.0-5.0;5.0);let doubled=clamped*2.0;let ": 5246,
      "i=mut.1;lp(let k=0;k<20;k=k+1){term=term*y/i as f64;sum=sum+term;": 5247,
      "expval=expapprox(doubled);let num=expval-1.0;let denom=expval+1.0;": 5248,
      "expapprox(y:f64):f64{let term=mut.1.0;let sum=mut.1.0;let i=mut.1;lp(let k=0;k<20;k=k+1){term=term*y/i as f64;sum=sum+term;": 5249,
      "i=i+1};<sum};f=clamp(val:f64;minv:f64;maxv:f64):f64{if(val<minv){<minv};if(val>maxv){<maxv};<val};f=tanhapprox(x:f64):f64{let other=0.0;if(x=other){<0.0};let clamped=clamp(x;0.0-5.0;5.0);let doubled=clamped*2.0;let ": 5250,
      "expval=expapprox(doubled);let num=expval-1.0;let denom=expval+1.0;<num/denom};f=": 5251,
      "expapprox(y:f64):f64{let term=mut.1.0;let sum=mut.1.0;let i=mut.1;lp(let k=0;k<20;k=k+1){term=term*y/i as f64;sum=sum+term;i=i+1};<sum};f=clamp(val:f64;minv:f64;maxv:f64):f64{if(val<minv){<minv};if(val>maxv){<maxv};<val};f=tanhapprox(x:f64):f64{let other=0.0;if(x=other){<0.0};let clamped=clamp(x;0.0-5.0;5.0);let doubled=clamped*2.0;let ": 5252,
      "expapprox(y:f64):f64{let term=mut.1.0;let sum=mut.1.0;let i=mut.1;lp(let k=0;k<20;k=k+1){term=term*y/i as f64;sum=sum+term;i=i+1};<sum};f=clamp(val:f64;minv:f64;maxv:f64):f64{if(val<minv){<minv};if(val>maxv){<maxv};<val};f=tanhapprox(x:f64):f64{let other=0.0;if(x=other){<0.0};let clamped=clamp(x;0.0-5.0;5.0);let doubled=clamped*2.0;let expval=expapprox(doubled);let num=expval-1.0;let denom=expval+1.0;<num/denom};f=": 5253,
      "<s": 5254,
      "=p": 5255,
      "ben": 5256,
      "dy;": 5257,
      ":i64};f=": 5258,
      "count+1": 5259,
      "idx=mut.0;let ": 5260,
      "t=$err{": 5261,
      "op;\"_\")){<": 5262,
      "=str.concat(msg": 5263,
      ":i64):i64{let result=mut.0;if(": 5264,
      "y;f=m": 5265,
      "(first:i64;second": 5266,
      "cfg:$": 5267,
      "message:\"_\";": 5268,
      ".get(i as u64)=": 5269,
      ":str):i64!$lokeerr{": 5270,
      "entity.": 5271,
      "str=str.fromint(": 5272,
      "(s:$str):$str{let n=s.len;if(n=0 as u64": 5273,
      "http.post(": 5274,
      "nonspace": 5275,
      "lhs;let ": 5276,
      "sizegb": 5277,
      "sort(p": 5278,
      "enabled": 5279,
      "caesarencrypt": 5280,
      "offset": 5281,
      "resolved": 5282,
      "describesign(x": 5283,
      "modelid:\"_\";provider:$": 5284,
      "perfectnum": 5285,
      "capability{modelid:\"_\";provider:$": 5286,
      " g": 5287,
      " result.push(": 5288,
      "(s:$": 5289,
      "*2;": 5290,
      "/(": 5291,
      "jec": 5292,
      "overnight": 5293,
      "ts:": 5294,
      "len);": 5295,
      "lp(let zw": 5296,
      "s:str": 5297,
      "ok:false;": 5298,
      ":$str):$": 5299,
      "colindex": 5300,
      "current);": 5301,
      "(cent": 5302,
      "getor": 5303,
      "p0=": 5304,
      " log.debug(": 5305,
      "preview": 5306,
      "value:": 5307,
      "values=@(": 5308,
      "arr.get(left": 5309,
      "args": 5310,
      "filtercol": 5311,
      "=mut.0.0;let ": 5312,
      "report=": 5313,
      "bit=": 5314,
      "str.tofloat(": 5315,
      "str.toint(": 5316,
      "translated": 5317,
      "wordcount(s:$str):i64{let ": 5318,
      "command{": 5319,
      "criteri": 5320,
      "asserttrue(\"_\";": 5321,
      "pow(base:i64;exp": 5322,
      "split": 5323,
      "s};f=": 5324,
      "};lp(let i=0;i<": 5325,
      "true};f=nthprime": 5326,
      ".get(i))){": 5327,
      "=mut.0;lp(let j=0;j<": 5328,
      "code>96){if(": 5329,
      " if(str.startswith(": 5330,
      "store:i64;": 5331,
      "mpty=": 5332,
      "air": 5333,
      "s:$dataset": 5334,
      "ultiply;f=m": 5335,
      ")=tmp;": 5336,
      "client.": 5337,
      "val=other){<val};let ": 5338,
      "){<true};<false};f=": 5339,
      "prefer": 5340,
      "){<\"_\"};if(c=\"_\"){<\"_\"};if(c=\"_\"){<\"_\"};if(c=\"_\"){<\"_\"};if(c=\"_\"){<\"_\"};if(c=\"_\"){<\"_\"};if(c=\"_\"){<\"_\"};if(c=\"_\"){<\"_\"};if(c=\"_\"": 5341,
      "d.parse(@(": 5342,
      " dataset": 5343,
      " confidence": 5344,
      "+\"_\"": 5345,
      ".append": 5346,
      "5=": 5347,
      "=log.newcorrelationid();": 5348,
      "sep": 5349,
      "=mut.0 as u64;": 5350,
      "){<left": 5351,
      "charr": 5352,
      "s=str.arraypush(": 5353,
      "toast": 5354,
      "modulo": 5355,
      "(n:f64;m": 5356,
      "=0;ii": 5357,
      "i=mut.0;lp(let i=0;i<": 5358,
      "clamped)};": 5359,
      "ackage": 5360,
      "(num1:u64;num2": 5361,
      "absval": 5362,
      "1;let dy=y": 5363,
      "(n:i64;m:i64):i64{let ": 5364,
      "badge": 5365,
      "3*current": 5366,
      "rows);lv=lv){": 5367,
      "10.0;20.0;": 5368,
      "httpcategory(code": 5369,
      "bookmark": 5370,
      "contextwindow:": 5371,
      "dx=x2-x": 5372,
      " let cid=log.newcorrelationid();": 5373,
      "mid=low+(": 5374,
      "code>96){if(code": 5375,
      "1;let dy=y2-y": 5376,
      "dx=x2-x1;let dy=y2-y": 5377,
      ")=\"_\"){": 5378,
      ".5": 5379,
      "7.0": 5380,
      ";}}": 5381,
      "inc": 5382,
      " let l": 5383,
      " let updated": 5384,
      "lp(let pass=": 5385,
      "isanagram": 5386,
      ";f=linearsearch": 5387,
      ";let result=": 5388,
      "ext.": 5389,
      "first<0.0": 5390,
      "}}}};<result};f=": 5391,
      "row;\"_\");": 5392,
      "outpath": 5393,
      "type;": 5394,
      "}el{result=result+(char as$str)": 5395,
      " as$str)}el{": 5396,
      "isequal": 5397,
      "cache.": 5398,
      "(arr:@i64;val": 5399,
      "trafficl": 5400,
      "current=3*current": 5401,
      " let parsed=json.dec(": 5402,
      " let entry=$": 5403,
      "needed": 5404,
      "str.replace(": 5405,
      " input": 5406,
      ")!": 5407,
      "42": 5408,
      ";m=m": 5409,
      "cell": 5410,
      "e=": 5411,
      "slen": 5412,
      "s)};": 5413,
      "rece": 5414,
      " let w": 5415,
      " let after": 5416,
      "s=paths": 5417,
      "counts;": 5418,
      "lp(let i=0;i<64": 5419,
      "s(arr": 5420,
      "err{": 5421,
      "col(row": 5422,
      "=mut.0;let current": 5423,
      "salt": 5424,
      " as u8){if(": 5425,
      "toolresult{": 5426,
      "){<\"_\"};<\"_\"};": 5427,
      "=mut.0;if(!(": 5428,
      ">0));": 5429,
      "suppres": 5430,
      ":i64):bool{if(lhs": 5431,
      "summary=": 5432,
      "dotafter": 5433,
      ");str.concat(\"_\";str.concat(jsonstr(c.": 5434,
      "http.get(\"_\";": 5435,
      ";f=demo():void{let ": 5436,
      "$modelcapability{modelid:\"_\";provider:$": 5437,
      " paths=paths": 5438,
      "){result=result+\"_\";capitalizenext=true}el{if(capitalizenext": 5439,
      "c:std.process;": 5440,
      "num-(num": 5441,
      ".append(\"_\");": 5442,
      " paths=paths.append(\"_\");": 5443,
      " estimated": 5444,
      "(reg": 5445,
      "(s:$str;width": 5446,
      "}<": 5447,
      "str.slice(": 5448,
      "=mut.2;": 5449,
      " let cfg": 5450,
      " let v=": 5451,
      ".get(index": 5452,
      "ch as u8": 5453,
      " as u64);if(": 5454,
      "));if(": 5455,
      "second};": 5456,
      "minator": 5457,
      "count=str.arraylen(": 5458,
      " results=str.arraypush(results;asserttranslated": 5459,
      "expan": 5460,
      ":f64;b": 5461,
      "rec.": 5462,
      "agents": 5463,
      "m=core.storage.": 5464,
      "=mut.0;lp(let i=0;i<arr.len": 5465,
      "requests": 5466,
      "str.fromu32": 5467,
      " as$str)}el{result=result+(c as$str)": 5468,
      "<result;}": 5469,
      ":$str):$str{let code=": 5470,
      "$err:e 0": 5471,
      "point{": 5472,
      "name:str;passed:bool;message": 5473,
      "x=x+1){if(": 5474,
      "result.get(k": 5475,
      "s:std.fs;": 5476,
      "env:std.": 5477,
      "num1+num2": 5478,
      "tokpersec": 5479,
      "g=gcd": 5480,
      "@(\"_\";\"_\";\"_\";\"_\";\"_\";\"_\";\"_\";\"_\");": 5481,
      ";if(remainder=0": 5482,
      "t=$result{name:str;passed:bool;message": 5483,
      "i=fs:std.fs;": 5484,
      "bench": 5485,
      "code>96){if(code<123": 5486,
      " results=str.arraypush(results;asserttranslated(\"_\";\"_\"));": 5487,
      "t=$result{name:str;passed:bool;message:str};": 5488,
      " name:str;": 5489,
      " user": 5490,
      ".charat(": 5491,
      "2=lv": 5492,
      ":agent.": 5493,
      "aler": 5494,
      "lear": 5495,
      "gen": 5496,
      " let res=": 5497,
      " let tokens": 5498,
      "){<first": 5499,
      "fix=": 5500,
      "num>0;": 5501,
      "thand": 5502,
      "json=": 5503,
      "d=\"_\"){": 5504,
      "10);": 5505,
      "name;\"_\")){": 5506,
      "out;": 5507,
      "lv2=lv": 5508,
      "m=m+1": 5509,
      "m=main": 5510,
      "status.": 5511,
      "i=mut.0;lp(let idx=0;idx<": 5512,
      "date;": 5513,
      ";f=isvalid": 5514,
      ";f=isgreaterthan": 5515,
      "shorthand": 5516,
      "<1){<\"_\"};if(": 5517,
      "m=tests.unit.cli.": 5518,
      "c>96){if(c<123){islower": 5519,
      "deg=": 5520,
      "lhs;rhs": 5521,
      "column);": 5522,
      "completedat": 5523,
      ".get(0);let ": 5524,
      "(j+1)as u64": 5525,
      "backgroun": 5526,
      "considere": 5527,
      ";if(len=0 as u64": 5528,
      "5.0){clamped": 5529,
      "low=mut.0;let high": 5530,
      "receive": 5531,
      "lv2=lv2){": 5532,
      "m=tests.unit.cli.test": 5533,
      " detail": 5534,
      "/8": 5535,
      "1)){check=true}};if(lhs=": 5536,
      ":filter.": 5537,
      "c2": 5538,
      "glob": 5539,
      "ms(": 5540,
      "tv": 5541,
      "){pass=pass+1}el{fail=fail+1};": 5542,
      "erun": 5543,
      "=mat": 5544,
      " let model": 5545,
      "ant(": 5546,
      "d=$": 5547,
      "d=true": 5548,
      ";if(width": 5549,
      ";\"_\")};": 5550,
      ";i=i+1){let elem=": 5551,
      "rhs=mut.\"_\";let ": 5552,
      "(arr)};": 5553,
      "0.0)){<\"_\";}el{if(!(pct<": 5554,
      "){result=false": 5555,
      "partition": 5556,
      "arr.get(idx": 5557,
      "))};f=accumulate(arr:@f64):f64{let r=mut.0.0;lp(let i=0;i<arr.len as i64;i=i+1){r=r+": 5558,
      "sql;@(": 5559,
      "j=j+1){result=result+": 5560,
      "str.jsonescape(": 5561,
      "){if(rhs<21){": 5562,
      "){if(!(rhs<21)){check=true}};if(lhs=": 5563,
      "(n;m))};": 5564,
      "got)))))": 5565,
      "len){shortest=current": 5566,
      "qualityscore:0.": 5567,
      "(p:i64;q:i64):i64{let ": 5568,
      "=expy": 5569,
      "tempcategory(celsi": 5570,
      "len=currentword.len;if(": 5571,
      "titlecase(s:$str):$str{let len=s.len;let ": 5572,
      "code>96){if(code<123){<": 5573,
      "5.0){clampedx=": 5574,
      " min": 5575,
      ")+1": 5576,
      "*mid": 5577,
      "-num": 5578,
      "=@(": 5579,
      "z=": 5580,
      "reset": 5581,
      ");capitalizenext=false": 5582,
      "allo": 5583,
      "f=load": 5584,
      "only": 5585,
      "ch}};f=": 5586,
      "ch}}el{<": 5587,
      ".len>": 5588,
      "median3": 5589,
      "deca": 5590,
      "right))};": 5591,
      "s.len=0 as u64": 5592,
      ");if(code>96){if(code<123){<": 5593,
      "model;": 5594,
      "low;": 5595,
      "m=core.agents.": 5596,
      "m=core.models.": 5597,
      ":core.optimiser.": 5598,
      "score<": 5599,
      "=mt parsed{": 5600,
      "cfg);": 5601,
      "q=1;": 5602,
      "rulehook": 5603,
      "){result=result+capitalize(ch": 5604,
      "res.status);": 5605,
      "group(": 5606,
      "c>64){if(c<91){isupper": 5607,
      ":i64):$str{<\"_\"};f=": 5608,
      "-32)}el{<": 5609,
      "i*i": 5610,
      "}}};<result};f=capitalize(ch": 5611,
      ":$str):i64{<0};f=": 5612,
      "=mut.true;lp(let i=0;i<len;i=i+1){let ch=s.get(i);if(ch=32": 5613,
      "placeholder;": 5614,
      "){<\"_\";}el{<\"_\";": 5615,
      "(i as u64)<": 5616,
      "denied": 5617,
      "charcode(ch);if(code>96){if(code<123){<": 5618,
      "charcode(ch:$str):i64{<0};f=": 5619,
      "fromcharcode(code:i64):$str{<\"_\"};f=": 5620,
      "fromcharcode(code-32)}el{<": 5621,
      "+@(arr.get(i));};": 5622,
      "}el{result=result+ch}}};<result};f=capitalize(ch": 5623,
      "formfield": 5624,
      "offload": 5625,
      "result=mut.\"_\";let capitalizenext=mut.true;lp(let i=0;i<len;i=i+1){let ch=s.get(i);if(ch=32": 5626,
      "lp(let m=0;m<n;m=m": 5627,
      "networkerr(": 5628,
      "randhex(": 5629,
      "i=proc:std.process;": 5630,
      "mid=low+(high-low": 5631,
      "){result=result+\"_\";capitalizenext=true}el{if(capitalizenext){result=result+capitalize(ch": 5632,
      ":$str):$str{let code=charcode(ch);if(code>96){if(code<123){<": 5633,
      "titlecase(s:$str):$str{let len=s.len;let result=mut.\"_\";let capitalizenext=mut.true;lp(let i=0;i<len;i=i+1){let ch=s.get(i);if(ch=32": 5634,
      ");capitalizenext=false}el{result=result+ch}}};<result};f=capitalize(ch": 5635,
      "ch}};f=charcode(ch:$str):i64{<0};f=": 5636,
      "ch}}el{<ch}};f=charcode(ch:$str):i64{<0};f=": 5637,
      "fromcharcode(code-32)}el{<ch}}el{<ch}};f=charcode(ch:$str):i64{<0};f=": 5638,
      "){result=result+\"_\";capitalizenext=true}el{if(capitalizenext){result=result+capitalize(ch);capitalizenext=false}el{result=result+ch}}};<result};f=capitalize(ch": 5639,
      ":$str):$str{let code=charcode(ch);if(code>96){if(code<123){<fromcharcode(code-32)}el{<ch}}el{<ch}};f=charcode(ch:$str):i64{<0};f=": 5640,
      "titlecase(s:$str):$str{let len=s.len;let result=mut.\"_\";let capitalizenext=mut.true;lp(let i=0;i<len;i=i+1){let ch=s.get(i);if(ch=32){result=result+\"_\";capitalizenext=true}el{if(capitalizenext){result=result+capitalize(ch);capitalizenext=false}el{result=result+ch}}};<result};f=capitalize(ch": 5641,
      ":$str):$str{let code=charcode(ch);if(code>96){if(code<123){<fromcharcode(code-32)}el{<ch}}el{<ch}};f=charcode(ch:$str):i64{<0};f=fromcharcode(code:i64):$str{<\"_\"};f=": 5642,
      "titlecase(s:$str):$str{let len=s.len;let result=mut.\"_\";let capitalizenext=mut.true;lp(let i=0;i<len;i=i+1){let ch=s.get(i);if(ch=32){result=result+\"_\";capitalizenext=true}el{if(capitalizenext){result=result+capitalize(ch);capitalizenext=false}el{result=result+ch}}};<result};f=capitalize(ch:$str):$str{let code=charcode(ch);if(code>96){if(code<123){<fromcharcode(code-32)}el{<ch}}el{<ch}};f=charcode(ch:$str):i64{<0};f=fromcharcode(code:i64):$str{<\"_\"};f=": 5643,
      " kind:\"_\";": 5644,
      "+x": 5645,
      "-current": 5646,
      "tl": 5647,
      " let max": 5648,
      "m=factorial": 5649,
      "){<candidate": 5650,
      "ispalindrome": 5651,
      ";i=i+1){result=result": 5652,
      "enco": 5653,
      "second=mut.0;if(": 5654,
      "s:$str):i64{let ": 5655,
      "raft": 5656,
      "<$command{": 5657,
      "stats(": 5658,
      "compare": 5659,
      "padlen": 5660,
      " results=str.arraypush(results;asserttrue(\"_\";str.arraylen(": 5661,
      "text(": 5662,
      "width;fill)};": 5663,
      "sqr": 5664,
      "sign=": 5665,
      "=str.trim(": 5666,
      "iseve": 5667,
      ";f=map": 5668,
      ")as f64": 5669,
      "parsed;\"_\");": 5670,
      " \"_\"))))))))": 5671,
      "f=main():i64{let ": 5672,
      ")){<\"_\"};if(!(deg>": 5673,
      "i=i+1 as u64){": 5674,
      "settings": 5675,
      "repeat(s:$str;": 5676,
      "kind:\"_\";arg": 5677,
      "savedus": 5678,
      "<2){<false};if(lhs=2": 5679,
      "connected": 5680,
      "ryrun": 5681,
      "expiresat": 5682,
      "json.i64(row;\"_\");": 5683,
      " if(!r.passed){let all=false}el{};": 5684,
      "totaltoken": 5685,
      "timeofday(hour": 5686,
      ":i64):bool{if(lhs<2){<false};if(lhs=2": 5687,
      "<$command{kind:\"_\";arg": 5688,
      " text": 5689,
      "$help": 5690,
      "bre": 5691,
      "h);": 5692,
      "i=pt": 5693,
      "=mid;": 5694,
      "m=browser.": 5695,
      "){<result": 5696,
      ";f=isempty(": 5697,
      " if(go": 5698,
      "};let result=mut.\"_\";": 5699,
      ":\"_\";error": 5700,
      "ok=false){": 5701,
      "0){result=": 5702,
      "count=num1": 5703,
      "httpreq": 5704,
      "lowercase": 5705,
      "agentid;": 5706,
      "(first:u64;second": 5707,
      "pass=pass+1;": 5708,
      ".get(i as u64);let ": 5709,
      "query(": 5710,
      "s;f=solve": 5711,
      "summary(": 5712,
      "queu": 5713,
      "count:i32;": 5714,
      "p0.len=0 as u64": 5715,
      "result=result+(char as$str);": 5716,
      " let row=row": 5717,
      "steps=mut.0;let current": 5718,
      " error:\"_\"": 5719,
      "000;supportstools:": 5720,
      "rotated": 5721,
      "first<second": 5722,
      "$none:v ": 5723,
      "isqrt(n": 5724,
      ";f=median3": 5725,
      " if(str.len(cfg.": 5726,
      "process:std.process;": 5727,
      " entities": 5728,
      "95){": 5729,
      "hyp": 5730,
      "str=\"_\"}el{};": 5731,
      "inje": 5732,
      "moid": 5733,
      "c=$": 5734,
      "idx+1;": 5735,
      "s.moke.": 5736,
      "right;let ": 5737,
      "req=str.": 5738,
      "(n:i64):$str{let ": 5739,
      "line;\"_\")){": 5740,
      "minset": 5741,
      " as i64;if(": 5742,
      "mato": 5743,
      "0000": 5744,
      "<0 as f64": 5745,
      "p0.get(i);let ": 5746,
      "preset(": 5747,
      "+1){if(isprime(candidate": 5748,
      "$ok:r ": 5749,
      ";f=islessorequal": 5750,
      "candidate};f=": 5751,
      " lp(let lv2=0;": 5752,
      "schemato": 5753,
      "m=tests.unit.governance.": 5754,
      "eqpos": 5755,
      ">0){let ": 5756,
      "m=solve;f=solve(p0:$str):bool{let ": 5757,
      "owner:\"_\";": 5758,
      "(val:i64;other:i64):bool{if(": 5759,
      "x>hi": 5760,
      "alphanumstr(": 5761,
      "}};<r};f=": 5762,
      "mockhttpreq": 5763,
      "m=package": 5764,
      "injection": 5765,
      "s.moke.tests.": 5766,
      "req=str.mockhttpreq": 5767,
      "m=packages.moke.tests.": 5768,
      " pass=pass+1;": 5769,
      "4*": 5770,
      "8.0;": 5771,
      "mas": 5772,
      "n:i64;m": 5773,
      "pending": 5774,
      "q<": 5775,
      "str!$lokeerr{": 5776,
      "decode": 5777,
      "tohex": 5778,
      "result=numerator": 5779,
      " if(r.": 5780,
      "(n:i64):$str{<": 5781,
      " as i64)": 5782,
      " as$str)};": 5783,
      "result=mut.true;": 5784,
      "port:": 5785,
      "cost=": 5786,
      "hasdigit": 5787,
      "modelid:str):$": 5788,
      "text);": 5789,
      ";f=isgreaterorequal": 5790,
      "formatted": 5791,
      "copy=": 5792,
      "(left:$str;right": 5793,
      "bool{if(s.len=0": 5794,
      "letter=true}};if(": 5795,
      ":$str):i64{let a=": 5796,
      "hexdigit": 5797,
      "10000": 5798,
      "wing:\"_\";": 5799,
      "hall:\"_\";": 5800,
      "modelt": 5801,
      "f=assertfalse": 5802,
      ";i=i+1){if(lhs<": 5803,
      ":0}": 5804,
      "candidate=candidate+1){if(isprime(candidate": 5805,
      "c=32){if(inword": 5806,
      "bmicat(bmi": 5807,
      " notes=@(notes;\"_\")": 5808,
      "q=mut.0;lp(let i=0;i<p.len;i=i+1){q=q": 5809,
      "(s:$str;width:i64;fill:$str):$str{let ": 5810,
      "95": 5811,
      ";i=str:std.str": 5812,
      "i);if(": 5813,
      "pul": 5814,
      "x.get(": 5815,
      "ard.": 5816,
      "elist": 5817,
      "=mut.left": 5818,
      " let j=str.concat(j": 5819,
      ":i64};": 5820,
      "};if(c=\"_\"": 5821,
      ";f=average": 5822,
      "current=mut.\"_\";let ": 5823,
      ")=freq.get(": 5824,
      "(c as$str);};": 5825,
      "0.0);": 5826,
      "mat.": 5827,
      "key:\"_\";value:\"_\"}": 5828,
      ":f64;right": 5829,
      "m=core.policy.": 5830,
      "busine": 5831,
      "+1){if(!(": 5832,
      "sigmoid": 5833,
      "fibonacci;f=": 5834,
      "r=r+(rhs as$str)": 5835,
      "ight(": 5836,
      "description;": 5837,
      "strlen(val:$str;other": 5838,
      "bounds.len": 5839,
      "lp(let candidate=2;count<": 5840,
      "eqbc": 5841,
      "$ok:v$ok(": 5842,
      "business": 5843,
      " d": 5844,
      "-100": 5845,
      "1;\"_\");": 5846,
      "399": 5847,
      "5000": 5848,
      "7;": 5849,
      "<str.concat(\"_\";": 5850,
      "ev": 5851,
      "ms();": 5852,
      "p.len;let ": 5853,
      "lerr": 5854,
      "inish": 5855,
      "){<@()": 5856,
      "uninstall": 5857,
      "charcode=": 5858,
      "(x/i)*i": 5859,
      "arr.get(i)=": 5860,
      "parts=str.split(": 5861,
      "toolresult": 5862,
      "request(": 5863,
      "ch=p0": 5864,
      "level);": 5865,
      "+(1 as u64": 5866,
      "detection": 5867,
      "other=val;if(": 5868,
      " title:\"_\";": 5869,
      "+digit;let ": 5870,
      "adjustment": 5871,
      "first;if(second": 5872,
      "+j": 5873,
      "65;": 5874,
      "900;": 5875,
      ">12": 5876,
      "x;i=i+1){if(": 5877,
      "}<true": 5878,
      "student": 5879,
      "){zor=true};if(rhs=": 5880,
      "eloc": 5881,
      " let first": 5882,
      "m=filter": 5883,
      "ch.": 5884,
      "\"_\";\"_\";\"_\")": 5885,
      "iscon": 5886,
      "false);": 5887,
      " as u64)>": 5888,
      "idx=mut.0;lp(let i=0;i<": 5889,
      "lhs:$str;": 5890,
      "stoken": 5891,
      "foundnonspace": 5892,
      "1){zor=true};if(rhs=": 5893,
      "idx=row": 5894,
      ":$str;y": 5895,
      "<2){<false};": 5896,
      ":i64):$str{let result=mut.\"_\";let ": 5897,
      "ecial": 5898,
      "want);": 5899,
      "m=totype": 5900,
      "lp(let i=0 as u64;i<n;": 5901,
      "(val:i64;other:i64):i64{if(val=other){<1": 5902,
      "tokperse": 5903,
      "-a/": 5904,
      "left=mut.0;let right=mut.": 5905,
      "i=s:core.storage.db;": 5906,
      ":i64):i64{let count=mut.0;lp(let candidate=2;count<": 5907,
      "=1 as u64){<": 5908,
      "scar.": 5909,
      " h": 5910,
      " agent": 5911,
      " s=str.concat(": 5912,
      "8);": 5913,
      "r1": 5914,
      "i=process:std.process;": 5915,
      "f=pass(n": 5916,
      "conso": 5917,
      " let content": 5918,
      "i=i+1}el{": 5919,
      "sht": 5920,
      ";f=factorial": 5921,
      "anom": 5922,
      "=0.0){": 5923,
      "lhs);let ": 5924,
      "ct;f=": 5925,
      "-1-i": 5926,
      "=true}}};if(": 5927,
      "low<": 5928,
      "outpath;": 5929,
      "all=false;": 5930,
      "keys": 5931,
      "url:\"_\";": 5932,
      "x=(x/i)*i": 5933,
      "=str.slice(": 5934,
      " mt parsed{": 5935,
      "notfound": 5936,
      "(num1:i64):i64{let count=mut.0;lp(let candidate=2;count<": 5937,
      "fibonaccirec(val": 5938,
      "interval": 5939,
      "lp(let i=1;!(i>": 5940,
      " log.warn(\"_\";\"_\";\"_\");": 5941,
      "){<false};}<true": 5942,
      ")){<\"_\"};if(!(age": 5943,
      "sentence": 5944,
      ".get(i));i=i+1;": 5945,
      "<$ok($": 5946,
      " let out=mut.\"_\";": 5947,
      "};f=nthprime(num1:i64):i64{let count=mut.0;lp(let candidate=2;count<": 5948,
      "num1;candidate=candidate+1){if(isprime(candidate": 5949,
      "}if(count=num1": 5950,
      "(x:i64):bool{if(x<2){<false};": 5951,
      "season(month": 5952,
      ":$str):i64{if(val=other": 5953,
      "lp(let i=2;i*i<x;i=i+1){if(": 5954,
      "b;a=b;b=": 5955,
      "val;other))};": 5956,
      " title:title;": 5957,
      "hasupper": 5958,
      ")){count=count+1;}if(count=num1": 5959,
      "unifiedmemory": 5960,
      "str.fromu32(": 5961,
      "){<candidate};}": 5962,
      "break": 5963,
      "m=tests.unit.governance.test": 5964,
      "console": 5965,
      "x=(x/i)*i){<false};}<true": 5966,
      "};f=nthprime(num1:i64):i64{let count=mut.0;lp(let candidate=2;count<num1;candidate=candidate+1){if(isprime(candidate": 5967,
      "(x:i64):bool{if(x<2){<false};lp(let i=2;i*i<x;i=i+1){if(": 5968,
      ")){count=count+1;}if(count=num1){<candidate};}": 5969,
      "x=(x/i)*i){<false};}<true};f=nthprime(num1:i64):i64{let count=mut.0;lp(let candidate=2;count<num1;candidate=candidate+1){if(isprime(candidate": 5970,
      "(x:i64):bool{if(x<2){<false};lp(let i=2;i*i<x;i=i+1){if(x=(x/i)*i){<false};}<true};f=nthprime(num1:i64):i64{let count=mut.0;lp(let candidate=2;count<num1;candidate=candidate+1){if(isprime(candidate": 5971,
      "(x:i64):bool{if(x<2){<false};lp(let i=2;i*i<x;i=i+1){if(x=(x/i)*i){<false};}<true};f=nthprime(num1:i64):i64{let count=mut.0;lp(let candidate=2;count<num1;candidate=candidate+1){if(isprime(candidate)){count=count+1;}if(count=num1){<candidate};}": 5972,
      "0)": 5973,
      "5*": 5974,
      ">0.0){": 5975,
      "ds.": 5976,
      "hd": 5977,
      "ile": 5978,
      "ier": 5979,
      "mt ": 5980,
      "n*": 5981,
      "octal": 5982,
      "\"_\":": 5983,
      "nto": 5984,
      "0;method:\"_\"}": 5985,
      "constr": 5986,
      "lot": 5987,
      "def.": 5988,
      "extrac": 5989,
      "};let result=": 5990,
      "n=x": 5991,
      "sum/": 5992,
      "rhs};f=": 5993,
      "secondlargest": 5994,
      ";};};<result};": 5995,
      "save": 5996,
      "bodyp": 5997,
      "}el{result=result+c as$str": 5998,
      "114": 5999,
      "q=1){count=count+1;": 6000,
      "entries:": 6001,
      "http.get": 6002,
      "mutable": 6003,
      "n=arr.len;": 6004,
      "other=other": 6005,
      "memorysearch": 6006,
      ";q:$": 6007,
      "100;90;": 6008,
      "/2*2;if(remainder": 6009,
      "right;lp(let i=0;i<": 6010,
      "qrt(n:i64):i64{let ": 6011,
      "delete": 6012,
      "wrapped": 6013,
      "=model": 6014,
      "rossborder": 6015,
      "}el{if(!(cents<": 6016,
      "power(base": 6017,
      "lp(let zz=0;": 6018,
      "ollamarunning": 6019,
      "colindex(": 6020,
      "wing:\"_\";hall:\"_\";": 6021,
      "-a/b*": 6022,
      "(x:i64):bool{if(x<2){<false};lp(let i=2;i*i<x;i=i+1){if(x=(x/i)*i){<false};}<true};f=nthprime(num1:i64):i64{let count=mut.0;lp(let candidate=2;count<num1;candidate=candidate+1){if(isprime(candidate)){count=count+1;}if(count=num1){<candidate};}<0": 6023,
      "wing:\"_\";hall:\"_\";room": 6024,
      " period": 6025,
      " platform": 6026,
      "6){": 6027,
      ";};if(": 6028,
      "x<0){": 6029,
      "in2": 6030,
      "olic": 6031,
      "iserror": 6032,
      "acti": 6033,
      "\"_\");\"_\")){pass=pass+1}el{fail=fail+1};": 6034,
      ":i64;k": 6035,
      "result=result+\"_\"}el{if(": 6036,
      "name:$str;": 6037,
      "sumcube": 6038,
      "minindex": 6039,
      "=\"_\")){": 6040,
      "t=want": 6041,
      "check=": 6042,
      "json.i64(": 6043,
      "len=p0.len;let ": 6044,
      "lower;\"_\");": 6045,
      "id;str.concat(\"_\";str.concat(": 6046,
      "m=core.router.": 6047,
      "requestid);": 6048,
      "}};<q": 6049,
      ":str):void{": 6050,
      "10;9;": 6051,
      "notar": 6052,
      "}}el{result=\"_\"": 6053,
      "5;4;": 6054,
      "q=q+": 6055,
      "c as$str}};<result};f=": 6056,
      "entitytype:\"_\";": 6057,
      "client=": 6058,
      "400;100;90;": 6059,
      "50;40;": 6060,
      "success:true;": 6061,
      "ntry{": 6062,
      "500;400;100;90;": 6063,
      "1000;900;": 6064,
      "truncate": 6065,
      "9999999999": 6066,
      "message:\"_\";version": 6067,
      "dx=x2-x1;let dy=y2-y1;let ": 6068,
      " if(got=want": 6069,
      "m=packages.moke.tests.test": 6070,
      "10;9;5;4;": 6071,
      "50;40;10;9;5;4;": 6072,
      "500;400;100;90;50;40;10;9;5;4;": 6073,
      "1000;900;500;400;100;90;50;40;10;9;5;4;": 6074,
      "1000;900;500;400;100;90;50;40;10;9;5;4;1);let ": 6075,
      " Err:e ": 6076,
      "+q": 6077,
      "bj": 6078,
      "p=mut.": 6079,
      "ri=": 6080,
      "slen=s.len": 6081,
      "lean": 6082,
      "\"_\"))))))))": 6083,
      "\"_\";@(": 6084,
      "inne": 6085,
      "):f64{let ": 6086,
      "s;width;fill)};": 6087,
      " if(!$": 6088,
      ":i64):str{": 6089,
      "=0){<0};if(": 6090,
      "first+": 6091,
      "env.": 6092,
      "agegroup(": 6093,
      "name));": 6094,
      "n=first.len": 6095,
      "lhs=mut.0;let ": 6096,
      "second=mut.": 6097,
      "cur=": 6098,
      "updat": 6099,
      "type:str;": 6100,
      "wordcount=": 6101,
      "br};if(": 6102,
      "\"_\";\"_\";\"_\";\"_\";\"_\";\"_\";\"_\";\"_\";\"_\";\"_\";\"_\";\"_\";\"_\";\"_\";\"_\";\"_\";": 6103,
      "key)){": 6104,
      "datarow": 6105,
      "getstr(": 6106,
      "ular": 6107,
      "0.0;10.0;20.0;": 6108,
      ")){if(d>": 6109,
      "dayname": 6110,
      "float": 6111,
      "opts{": 6112,
      "fromcharcode": 6113,
      ";i=file:std.file;": 6114,
      "size:": 6115,
      "=mid*mid": 6116,
      "dispatch(": 6117,
      "f=main():": 6118,
      "queuecancel": 6119,
      "entry);": 6120,
      "i=i+1 as u64){if(": 6121,
      "squared": 6122,
      "aaak;": 6123,
      "integrations:": 6124,
      "str.join(": 6125,
      ".len;let result=mut.\"_\";lp(let i=0;i<n;i=i+1){let c=": 6126,
      "distance(x1:f64;y1:f64;x2:f64;y2:f64):f64{let ": 6127,
      "dotafterat": 6128,
      " \"_\";\"_\";\"_\";\"_\";": 6129,
      "();let ": 6130,
      "(max": 6131,
      "(0 as u64": 6132,
      "2));": 6133,
      "8){": 6134,
      "a-a/b*": 6135,
      "c2=": 6136,
      "wing;": 6137,
      "rect": 6138,
      "0;};": 6139,
      " let a": 6140,
      "){<-1": 6141,
      "toke": 6142,
      ")){br};let ": 6143,
      " if(info.": 6144,
      "lp(let i=0;i<first.len": 6145,
      "first*": 6146,
      ");let rhs=": 6147,
      ";\"_\"+": 6148,
      "10){": 6149,
      "};<result;};f=": 6150,
      "false;};": 6151,
      "line)": 6152,
      "=true}el{": 6153,
      "pop": 6154,
      "opad": 6155,
      "n;lv=lv){": 6156,
      "temp-(": 6157,
      "<0){if(right": 6158,
      "exp;": 6159,
      "getcol(row": 6160,
      "capnext=": 6161,
      "(first:@i64;second": 6162,
      "(s:$str):$str{<": 6163,
      "sens": 6164,
      ";f=isnotequal": 6165,
      "registry(": 6166,
      "entries": 6167,
      "palac": 6168,
      "scheme": 6169,
      "summary.": 6170,
      "degra": 6171,
      "queryop:\"_\";": 6172,
      "y=y+(": 6173,
      "m=toupper": 6174,
      "secre": 6175,
      "recommendation{": 6176,
      "s);let b=": 6177,
      "settings;": 6178,
      "offset=": 6179,
      "condition{": 6180,
      "result=mid;": 6181,
      "half": 6182,
      "num1<num2": 6183,
      "c>96){if(c<123){result=result+(c-32": 6184,
      " if(v){<pass(n)}el{<fail(n": 6185,
      "$ok:obj ": 6186,
      " if(str.eq(s;\"_\")){": 6187,
      "hasspecial": 6188,
      " id": 6189,
      " ollama": 6190,
      "lu": 6191,
      "m=mut.\"_\";": 6192,
      "morsechar": 6193,
      "p=\"_\"){": 6194,
      "pentagonal": 6195,
      "ts);": 6196,
      "stdo": 6197,
      "){m=": 6198,
      "\"_\";cid);": 6199,
      "i=sy": 6200,
      " let results=str.arraypush(results;": 6201,
      "m=true};if(c=\"_\"){": 6202,
      "ch>": 6203,
      "};if(other": 6204,
      "i=i-1": 6205,
      ":i64):f64{if(": 6206,
      ";i=i+1){sum=sum+": 6207,
      "lp(let i=0;(i as u64)<": 6208,
      "vector": 6209,
      ";if(x": 6210,
      "res=mut.": 6211,
      "<$result{": 6212,
      "temp2": 6213,
      "temp>0;": 6214,
      "lowerbound": 6215,
      "fet": 6216,
      "feature": 6217,
      "str.arraylen": 6218,
      "){<0}el{if(": 6219,
      ")){if(deg=": 6220,
      "}};};if(": 6221,
      "basemut": 6222,
      "subtract": 6223,
      "){if(!(deg": 6224,
      " lp(let lv=0;row": 6225,
      "profile;": 6226,
      "html;\"_\"));": 6227,
      "sortdesc": 6228,
      "num1=num2": 6229,
      "remote": 6230,
      "template;": 6231,
      ")){result=false": 6232,
      "shifted-": 6233,
      "normalized": 6234,
      "triang": 6235,
      "vari": 6236,
      "result=mut.false;let ": 6237,
      "n=n+1": 6238,
      "=mt db.queryparams(": 6239,
      "n=lhs.len;let ": 6240,
      "httpmethod(code": 6241,
      " column:q.": 6242,
      "n=true};if(c=\"_\"){n=true};if(c=\"_\"){": 6243,
      "getor(\"_\";\"_\");": 6244,
      "http.get(\"_\";&h": 6245,
      "queuelist": 6246,
      "4*4": 6247,
      "env.getor(\"_\";\"_\");": 6248,
      "stdout(": 6249,
      " result": 6250,
      " cost": 6251,
      " op:\"_\";": 6252,
      "$unknown": 6253,
      "c1=": 6254,
      "k);": 6255,
      "s=mut.@(": 6256,
      "us:f64):": 6257,
      "rev=": 6258,
      ");\"_\";\"_\");": 6259,
      "f=default": 6260,
      " let config": 6261,
      " let ollama": 6262,
      " let found=mut.false;": 6263,
      "m=charat": 6264,
      "str.concat(r": 6265,
      "count.get(idx": 6266,
      "firstchar=": 6267,
      ";if(mod": 6268,
      "(n))};f=accumulate(arr:@i64):i64{let r=mut.0;lp(let i=0;i<arr.len as i64;i=i+1){r=r+": 6269,
      "sorted.get(j);": 6270,
      "len=len": 6271,
      "m=m+c": 6272,
      "fec": 6273,
      "scr": 6274,
      "value;": 6275,
      ".get(i);if(!(": 6276,
      "sys;": 6277,
      "field:\"_\";": 6278,
      "response{": 6279,
      "query):$result{": 6280,
      "divisor=mut.2;": 6281,
      "toks": 6282,
      "rhs=rhs+(c as$str)": 6283,
      " rowidx=row": 6284,
      "compression": 6285,
      ":@$str):$str{let ": 6286,
      "recommendmodel(": 6287,
      " let msg=str.concat(\"_\";": 6288,
      "product;f=": 6289,
      "s.len as i64;i=i+1){let ": 6290,
      "compute;": 6291,
      " test.asserteq(ep.": 6292,
      ":core.governance.external;": 6293,
      "ultiply(left:i64;right": 6294,
      "second<0){<0};let ": 6295,
      "ugh": 6296,
      "digitalroo": 6297,
      "(arr:@u64):u64{let ": 6298,
      "(c+32)as$str": 6299,
      "$lokeerr:e ": 6300,
      ";f=main():i64{let ": 6301,
      "evaluate": 6302,
      ".len;lp(let j=0;j<m;": 6303,
      "leastfreqchar": 6304,
      "registry.entrie": 6305,
      "low<high": 6306,
      ";q:$query):$result{": 6307,
      "temp-(temp": 6308,
      "luh": 6309,
      " rowidx=rowidx+1": 6310,
      " response": 6311,
      "0=": 6312,
      "1}};": 6313,
      "n=mut.0;let ": 6314,
      "p=0;": 6315,
      "}};};": 6316,
      "0;Err:e ": 6317,
      "in;": 6318,
      "f=find": 6319,
      "conver": 6320,
      " let resp": 6321,
      "count>": 6322,
      "false}};<": 6323,
      ";f=fibonaccirec(n": 6324,
      " if(i<": 6325,
      "){if(day": 6326,
      "enter": 6327,
      "left=0;": 6328,
      "name:str):$": 6329,
      "quad": 6330,
      "newc=": 6331,
      "tools;": 6332,
      "score:": 6333,
      "capitalize": 6334,
      " results=str.arraypush(results;asserteq(\"_\";str.fromint(": 6335,
      ">17": 6336,
      "cnt};f=": 6337,
      "matches(": 6338,
      "reverseint": 6339,
      "schema;": 6340,
      "indexof(": 6341,
      ".get(0);if(": 6342,
      "=0-right;lp(let i=0;i<": 6343,
      "modelsrecommend": 6344,
      "2;f=min2": 6345,
      "alphanumstr": 6346,
      "entry{key:\"_\";value:\"_\"}": 6347,
      "translator;": 6348,
      "};if(!(weight>1": 6349,
      "shippingcost(weight": 6350,
      "metadata": 6351,
      "values=@(1000;900;500;400;100;90;50;40;10;9;5;4;1);let ": 6352,
      "c>96){if(c<123){islower=true}};if(": 6353,
      "sqrthelper": 6354,
      "condition{field:\"_\";": 6355,
      "entry{key:\"_\";value:\"_\"});": 6356,
      "condition{field:\"_\";op:\"_\";": 6357,
      " original": 6358,
      "(name;str.concat(\"_\";str.concat(": 6359,
      "1 as u64;": 6360,
      ":d.": 6361,
      "nical": 6362,
      "pk": 6363,
      "p.get(i);": 6364,
      "rege": 6365,
      "):u64{let ": 6366,
      " let run": 6367,
      " let tool": 6368,
      " let raw": 6369,
      " let event": 6370,
      "tech": 6371,
      "};<total": 6372,
      ";f=subtract(": 6373,
      "navi": 6374,
      "port=": 6375,
      "<0){<0};": 6376,
      "ner.": 6377,
      "}};if(inword": 6378,
      ";f=isprime": 6379,
      "sign(": 6380,
      ":u64):i64{let ": 6381,
      "report;": 6382,
      "diff.": 6383,
      "piide": 6384,
      "dash.": 6385,
      "usecaseid;": 6386,
      " if(r.passed){i=i+1}el{": 6387,
      "symbols=@(\"_\";\"_\";\"_\";\"_\";\"_\";\"_\";\"_\";\"_\";": 6388,
      "(store;\"_\";": 6389,
      "triangleside": 6390,
      "clamp(x:i64;lo:i64;hi": 6391,
      "backen": 6392,
      "zeropad": 6393,
      "i=json:std.json;i=io:std.io;f=example():void{let ": 6394,
      "digitalroot(": 6395,
      "luhn": 6396,
      "technical": 6397,
      "navite": 6398,
      "piidete": 6399,
      "-num1": 6400,
      "300": 6401,
      "69": 6402,
      ";i=str:std.str;": 6403,
      "<len": 6404,
      "b};f=": 6405,
      "gt": 6406,
      "l};<result": 6407,
      "l=0-": 6408,
      "n);": 6409,
      "r=0-right;lp(let i=0;i<": 6410,
      "y.len": 6411,
      "sual": 6412,
      "\"_\";\"_\"));": 6413,
      "elabel": 6414,
      " let in": 6415,
      " let local": 6416,
      "cast": 6417,
      "m=q": 6418,
      "m=power": 6419,
      "rol": 6420,
      "kept": 6421,
      ");let result=": 6422,
      "prise": 6423,
      "=\"_\"};": 6424,
      "(cla": 6425,
      "contains;f=": 6426,
      "(x:f64;": 6427,
      " as u8)as$str": 6428,
      "){result=\"_\"": 6429,
      "visual": 6430,
      "sq=mid*mid": 6431,
      "lp(let j=0;j+1": 6432,
      "setstr(": 6433,
      "ategory": 6434,
      "1=str.concat(\"_\";": 6435,
      "first=second": 6436,
      "+(ch": 6437,
      "}}el{inword=true": 6438,
      "br;};};let ": 6439,
      "rem=rem": 6440,
      "owner:": 6441,
      "(i as f64": 6442,
      "collatzsteps(n:i64):i64{let ": 6443,
      "download": 6444,
      "currlen<": 6445,
      "confidence:0.7": 6446,
      "pivot){": 6447,
      " let now=": 6448,
      "t.strpad": 6449,
      "+dy*dy;": 6450,
      "}};<true};f=is": 6451,
      "global": 6452,
      "enterprise": 6453,
      "values=@(1000;900;500;400;100;90;50;40;10;9;5;4;1);let symbols=@(\"_\";\"_\";\"_\";\"_\";\"_\";\"_\";\"_\";\"_\";": 6454,
      "r=0-right;lp(let i=0;i<r": 6455,
      "}}el{inword=true}};if(inword": 6456,
      " th": 6457,
      " state": 6458,
      " permission": 6459,
      ":reason": 6460,
      "or(obj": 6461,
      "$str{": 6462,
      "true);": 6463,
      "count+1;": 6464,
      ":std.crypto": 6465,
      "char>96){if(": 6466,
      "(pct": 6467,
      "1){count=count+1": 6468,
      "tokenoptimis": 6469,
      "obj=": 6470,
      "=true;br;": 6471,
      "routell": 6472,
      "doc": 6473,
      "arr.get(j);": 6474,
      "ax2": 6475,
      "zor=true};if(!(": 6476,
      "400*": 6477,
      "x<lo": 6478,
      " assert.contains(": 6479,
      "collatzsteps(n": 6480,
      "crypto:std.crypto": 6481,
      "routingdecision": 6482,
      " tokensin": 6483,
      "attempts": 6484,
      "25519": 6485,
      " run": 6486,
      " local": 6487,
      " costusd:": 6488,
      ";ctx": 6489,
      ";counts.get(idx": 6490,
      "sca": 6491,
      "s.get(j);if(": 6492,
      "v<": 6493,
      "\"_\")=": 6494,
      "er{": 6495,
      "ari": 6496,
      " let k": 6497,
      " let found=": 6498,
      " let work": 6499,
      "};<guess": 6500,
      "acted": 6501,
      "result=0": 6502,
      "sha": 6503,
      "\"_\");};": 6504,
      "c=c+32": 6505,
      "){if(true": 6506,
      "){if(hour>": 6507,
      "ensure": 6508,
      "diary": 6509,
      ";};};if(": 6510,
      ";};};if(!(": 6511,
      "rag": 6512,
      "sorted;f=issorted": 6513,
      "checkhtml": 6514,
      "(x;": 6515,
      "){<true}};<": 6516,
      "+1};steps=steps": 6517,
      "timeout": 6518,
      "};f=iszero": 6519,
      "provider;": 6520,
      "(lhs:f64;rhs:f64):": 6521,
      "$err:e \"_\"};": 6522,
      " output": 6523,
      "redacted": 6524,
      "arr.get(j+1": 6525,
      ";q.": 6526,
      "drawer{": 6527,
      ":@$str;q": 6528,
      "pos=pos": 6529,
      "current=current/2}el{": 6530,
      "2;f=max2": 6531,
      "(st:$": 6532,
      "tr.t(\"_\");\"_\";\"_\");": 6533,
      "accesstoken": 6534,
      "yaml": 6535,
      "extensions.": 6536,
      "base=97": 6537,
      "pipelinerun": 6538,
      "str.tofloat(str.fromint(": 6539,
      "current=current/2}el{current=3*current": 6540,
      " systemprompt": 6541,
      "4.0;": 6542,
      "mult": 6543,
      "q=mut.\"_\";let ": 6544,
      "wh": 6545,
      "i=0": 6546,
      " let obj": 6547,
      "arrindexof": 6548,
      "s=str.fromfloat(": 6549,
      ".len;i=i+1){": 6550,
      "show": 6551,
      " as u64)<": 6552,
      "exter": 6553,
      "d=d": 6554,
      "s.append(": 6555,
      "nalend": 6556,
      "cep": 6557,
      "){<\"_\"}el{": 6558,
      "(n:i64;k": 6559,
      "lict": 6560,
      ":$str):$result{": 6561,
      "s.get(i)": 6562,
      "){<false}el{<true": 6563,
      "idx=i;": 6564,
      "};};};": 6565,
      "div4": 6566,
      "parts.push(": 6567,
      "freq.get(idx": 6568,
      ";f=modulo": 6569,
      "sys.": 6570,
      "conflict": 6571,
      " category": 6572,
      "26;i=i+1){if(!(": 6573,
      "(*test:handler": 6574,
      "status:v ": 6575,
      "latencytolerance": 6576,
      "factorialrecwrapper(n:i64):i64{<": 6577,
      "approximateexp": 6578,
      "i18n.translator;": 6579,
      "enote": 6580,
      "location.": 6581,
      ")/2;let sq=mid*mid": 6582,
      "overnightstatus:v ": 6583,
      "learning": 6584,
      "ri=ri": 6585,
      "externalend": 6586,
      "(sorted": 6587,
      "2<": 6588,
      "2);let ": 6589,
      "73": 6590,
      "mul": 6591,
      "strun": 6592,
      "coef": 6593,
      "ution": 6594,
      "i64!$err{let ": 6595,
      "f=op": 6596,
      "len-1;": 6597,
      "tobinary": 6598,
      ".get(i)){": 6599,
      " if(cfg.": 6600,
      "model{": 6601,
      "}el{if(str.eq(": 6602,
      "verifi": 6603,
      "min2": 6604,
      "ase(prompt": 6605,
      " if(str.contain": 6606,
      "s);lv=lv){": 6607,
      "recase(prompt": 6608,
      "forma": 6609,
      "norecase(prompt": 6610,
      "parts.len": 6611,
      "scal": 6612,
      "path=str.concat(": 6613,
      "signorecase(prompt": 6614,
      "good": 6615,
      "baseurl;\"_\");": 6616,
      "item=": 6617,
      "filterval);": 6618,
      ":$str):i64{let result=mut.0;let ": 6619,
      "idx=idx+1": 6620,
      "client;": 6621,
      "s:std.sys;": 6622,
      "savings": 6623,
      "percentile": 6624,
      "err:e$": 6625,
      "cpucore": 6626,
      "inword=false}}el{inword=true}};if(inword": 6627,
      "proto.toolresult": 6628,
      "tention": 6629,
      "(lhs;rhs))};": 6630,
      "http.post(\"_\";": 6631,
      "blank": 6632,
      "current>1;": 6633,
      "expansion": 6634,
      "randhex(16);": 6635,
      "(val:i64;other:i64):bool{if(val=other": 6636,
      " if(got=want){<": 6637,
      "i=sys:std.sys;": 6638,
      " if(str.containsignorecase(prompt": 6639,
      " if(str.containsignorecase(prompt;\"_\")){": 6640,
      " session": 6641,
      "(state:$": 6642,
      "31;": 6643,
      "<@(": 6644,
      "=@();": 6645,
      "pth": 6646,
      " let entity": 6647,
      "m=first": 6648,
      "m=app": 6649,
      "m=add": 6650,
      "){<true;": 6651,
      "i=i+1){if(!(": 6652,
      "arraverage": 6653,
      "charstr=": 6654,
      "tient(": 6655,
      "rhs>64){if(": 6656,
      "min3": 6657,
      "num2};": 6658,
      "total;": 6659,
      "key:str;": 6660,
      "file(": 6661,
      ":$str;num2": 6662,
      "m=core.feedback.": 6663,
      "tools:": 6664,
      "ch=q": 6665,
      "<result;};f=": 6666,
      ";f=isanagram": 6667,
      "s=@(\"_\";\"_\";\"_\";\"_\";": 6668,
      "m=isvalid": 6669,
      "m=ispositive": 6670,
      ")){if(!(m>": 6671,
      "=crypto": 6672,
      "store.entrie": 6673,
      "lhs;if(": 6674,
      "/2*2;if(!(": 6675,
      "\"_\"};result=result+": 6676,
      "16;": 6677,
      "denominator": 6678,
      ";f=arrcount(": 6679,
      " description:": 6680,
      "distin": 6681,
      "put(": 6682,
      " value:": 6683,
      "(s;width": 6684,
      "){<n};<": 6685,
      "pool.": 6686,
      "){<\"_\"};let result=mut.\"_\";let num=mut.": 6687,
      "n){<all": 6688,
      "medium": 6689,
      "(p;q))};": 6690,
      "t=$err{code": 6691,
      "shttp": 6692,
      "triangular": 6693,
      "rhs>64){if(rhs": 6694,
      " resp": 6695,
      " stream": 6696,
      "+arr.get(i);};<": 6697,
      "-4": 6698,
      "1};};if(": 6699,
      ";str.concat(": 6700,
      "ms=": 6701,
      "mise": 6702,
      "xtract": 6703,
      "strip": 6704,
      "strong": 6705,
      "f=generate": 6706,
      "lo;": 6707,
      "olution": 6708,
      "s;str.concat(\"_\";": 6709,
      "totient(": 6710,
      ";f=foldsum": 6711,
      "};let count": 6712,
      "err(\"_\");": 6713,
      "code<": 6714,
      "str.concat(\"_\";str.concat(str.fromint(": 6715,
      "idx=colindex(": 6716,
      "id;id)){": 6717,
      "vige": 6718,
      "ing;q.": 6719,
      ".get(i as u64)>": 6720,
      ":@i64;q": 6721,
      "backup": 6722,
      ";i=math:std.math": 6723,
      "working;q.": 6724,
      "val.len};f=": 6725,
      "<fail(\"_\";\"_\")": 6726,
      "template.": 6727,
      "st.entrie": 6728,
      "file.write(": 6729,
      "anonymise": 6730,
      "){result=true};<result};": 6731,
      "binarysearch": 6732,
      "diarie": 6733,
      ":i32):$result{": 6734,
      "blockedent": 6735,
      " let id=str.": 6736,
      "rotated=": 6737,
      ")as u8=": 6738,
      "largestcoin(cent": 6739,
      "v false};": 6740,
      "=mut.1;lp(let i=2;i<n": 6741,
      "filtere": 6742,
      "countchars(n": 6743,
      "(s:$str):$str{let n=s.len;if(n=0 as u64){<\"_\"};let ": 6744,
      "-1-i)as u64": 6745,
      "message:\"_\";version:\"_\"}": 6746,
      "integrations:v false};": 6747,
      "contains;f=arrcontains(": 6748,
      "char>96){if(char": 6749,
      "current=current/2}el{current=3*current+1};steps=steps": 6750,
      "idx=colindex(working;q.": 6751,
      "(guess": 6752,
      ":job.": 6753,
      "b);": 6754,
      "c as$str);": 6755,
      "empt": 6756,
      "n.len": 6757,
      "p:$str;q": 6758,
      "p>q": 6759,
      "r=mut.": 6760,
      "s=mut.0;": 6761,
      "y=0": 6762,
      "){count=count+1};": 6763,
      "or(": 6764,
      " let client=": 6765,
      "loader": 6766,
      "num<": 6767,
      "then": 6768,
      "three": 6769,
      "c=97": 6770,
      "c=c-32": 6771,
      "codegener": 6772,
      ";\"_\");};": 6773,
      "colle": 6774,
      "j=json.dec(\"_\")|{Ok:v v;Err:e io.exit(1)};let ": 6775,
      "ipeline": 6776,
      "pass1": 6777,
      "pass2": 6778,
      "data=": 6779,
      " if(str.eq(entity.": 6780,
      "state);": 6781,
      "=mut.false;lp(let j=0;j<": 6782,
      "mlx": 6783,
      "str=str.fromi32(": 6784,
      "rypt": 6785,
      ";if(n<0){<0};": 6786,
      " let row=str.get(": 6787,
      ")};let r": 6788,
      "selected": 6789,
      "costusd;": 6790,
      "paired": 6791,
      "m=arrlen": 6792,
      " ok:v v;": 6793,
      "};<q};": 6794,
      "t as f64": 6795,
      "};if(val>other": 6796,
      "width-s": 6797,
      "symbols.get(i as u64);": 6798,
      "$err:v false": 6799,
      "lp(let i=0;i<n;i=i+1){let c=first.get(i);if(c>96){if(c<123){": 6800,
      "cloudcost": 6801,
      " durationms:0;": 6802,
      "result=result+1}}};<result};f=": 6803,
      "rows;rowidx);": 6804,
      "(ds;q.": 6805,
      "palaceloc": 6806,
      "p=\"_\"){q": 6807,
      " lp(let lv=0;rowidx<str.len(": 6808,
      "vigene": 6809,
      "+5": 6810,
      ".5;": 6811,
      "<c": 6812,
      "draft": 6813,
      "eme": 6814,
      "p};f=": 6815,
      "rp": 6816,
      "ts=": 6817,
      "review": 6818,
      "sue": 6819,
      "=max": 6820,
      ".get((len": 6821,
      "loud": 6822,
      "urn": 6823,
      "){if(other": 6824,
      "ftwo": 6825,
      "}}}};<": 6826,
      "s.len;i=i+1){": 6827,
      "chart.": 6828,
      "lines.len;": 6829,
      ";};}el{": 6830,
      "port(": 6831,
      "password": 6832,
      "newcount=": 6833,
      "(x:$str;y": 6834,
      "j=j+2){let ": 6835,
      "(s:$str):i64{<": 6836,
      "endswith(": 6837,
      "100*10": 6838,
      "=mut.@();lp(let i=0;i<n;i=i+1){": 6839,
      "(lhs:$str):": 6840,
      ":u64):i64{<": 6841,
      "first=s;let ": 6842,
      "status{$": 6843,
      "lp(let i=0;i<13": 6844,
      " if(i>n){<all": 6845,
      "modelerr": 6846,
      " str.concat(\"_\";str.concat(event.": 6847,
      "ollamaurl);": 6848,
      "remainder=x-x": 6849,
      "deny": 6850,
      "countlower(first:$str):i64{let result=mut.0;let ": 6851,
      "number/16": 6852,
      "s;str.concat(\"_\";str.concat(cfg.": 6853,
      "blocked": 6854,
      "};}el{inword=": 6855,
      "call.": 6856,
      "countwords(s:$str):i64{let ": 6857,
      "inword=false}el{if(!(": 6858,
      ")!$err;let ": 6859,
      "mcpbroker.registry;": 6860,
      " lp(let lv=0;i<n;lv=lv){": 6861,
      "};f=isprime(x:i64):bool{if(x<2){<false};lp(let i=2;i*i<x;i=i+1){if(x=(x/i)*i){<false};}<true};f=nthprime(num1:i64):i64{let count=mut.0;lp(let candidate=2;count<num1;candidate=candidate+1){if(isprime(candidate)){count=count+1;}if(count=num1){<candidate};}<0": 6862,
      ";i=i+1){let val=value": 6863,
      "fibonacci(n:i64):i64{if(n=0){<0};if(n=1){<1};let ": 6864,
      "m=amth": 6865,
      "http.post(url;": 6866,
      "s:$dataset;q:$query):$result{": 6867,
      "alert": 6868,
      "res.status);str.fromint(": 6869,
      "injectionhit": 6870,
      "}el{result=result+c as$str}}el{result=result+": 6871,
      "n=first.len;if(n<0){<0};": 6872,
      "wordcount=wordcount": 6873,
      " column:q.column;": 6874,
      "values=@(1000;900;500;400;100;90;50;40;10;9;5;4;1);let symbols=@(\"_\";\"_\";\"_\";\"_\";\"_\";\"_\";\"_\";\"_\";\"_\";\"_\";\"_\";\"_\";\"_\");": 6875,
      "countlower(first:$str):i64{let result=mut.0;let n=first.len;if(n<0){<0};": 6876,
      "countlower(first:$str):i64{let result=mut.0;let n=first.len;if(n<0){<0};lp(let i=0;i<n;i=i+1){let c=first.get(i);if(c>96){if(c<123){": 6877,
      " idx=idx+1": 6878,
      "\"_\":\"_\";": 6879,
      "inp": 6880,
      " let f": 6881,
      " let ok": 6882,
      " let reason": 6883,
      "m=bubble": 6884,
      ".get(0);": 6885,
      ";f=filter": 6886,
      "};f=sign": 6887,
      " if(s.": 6888,
      ":sto": 6889,
      "jsonescape(": 6890,
      "left;let ": 6891,
      "second){": 6892,
      ":$report": 6893,
      "s.get(i));": 6894,
      "arr.len=1 as u64){<": 6895,
      "sorted=mut.": 6896,
      "){<\"_\"};if(score>": 6897,
      "run(": 6898,
      "div=": 6899,
      "parts+@(": 6900,
      "(s:$str):bool{let ": 6901,
      "path:str;": 6902,
      "lastchar": 6903,
      ".get(i as u64);if(": 6904,
      "=$comp": 6905,
      "=true;}};if(": 6906,
      ";\"_\")){<\"_\"};": 6907,
      "ask:v false;$": 6908,
      ":v false;$version": 6909,
      ":v false;$models": 6910,
      ":v false;$agents": 6911,
      ":v false;$queuecancel": 6912,
      ":v false;$ask:v false;$": 6913,
      "(left:f64;right": 6914,
      "factorialrec(val": 6915,
      "headers;": 6916,
      "internet": 6917,
      "num=0){": 6918,
      "p0.len;i=i+1){let ch=": 6919,
      "}}el{if(right": 6920,
      "inword=0": 6921,
      "charfreq(x": 6922,
      "queue.": 6923,
      ";f=arrlen": 6924,
      "json.dec(raw": 6925,
      ".get(j);if(ch as u8": 6926,
      "rant(": 6927,
      " status:\"_\";": 6928,
      "$lokeerr:e": 6929,
      ":$str};f=": 6930,
      ":core.providers.types;": 6931,
      "i=mut.0 as u64;lp(let j=0 as u64;j<": 6932,
      "meta.": 6933,
      "steps=mut.0;let current=mut.n;": 6934,
      "lp(let zz=0;zz": 6935,
      "featurearea": 6936,
      ".len;lp(let j=0;j<m;j=j+2){let ": 6937,
      "sha256": 6938,
      "overnightstatus:v false;": 6939,
      " if(str.eq(entity.entitytype;\"_\")){": 6940,
      "countlower(first:$str):i64{let result=mut.0;let n=first.len;if(n<0){<0};lp(let i=0;i<n;i=i+1){let c=first.get(i);if(c>96){if(c<123){result=result+1}}};<result};f=": 6941,
      ":v false;$modelslist:v false;$": 6942,
      ":v false;$agentslist:v false;$": 6943,
      " hook": 6944,
      " latencyms:": 6945,
      "(q": 6946,
      ")-": 6947,
      "+48;": 6948,
      "21": 6949,
      "=process.spaw": 6950,
      "a=mut.": 6951,
      "hint": 6952,
      "href": 6953,
      "n-1;": 6954,
      "q=mut.0;if(": 6955,
      "slen<": 6956,
      "way": 6957,
      "wise": 6958,
      "getp": 6959,
      "atcount=": 6960,
      "exact": 6961,
      "){if(inword=": 6962,
      "num1;let ": 6963,
      "lhs};": 6964,
      "allrow": 6965,
      "){<false}el{if(": 6966,
      "len=shortest": 6967,
      "configerr(": 6968,
      " results=str.arraypush(results;asserttrue(\"_\";str.": 6969,
      "=mut.0;lp(let i=0;i<len;i=i+1){let ch=s.get(i);if(ch=32": 6970,
      "=\"_\"){shortest=current": 6971,
      "$ok:raw": 6972,
      "}el{let curr": 6973,
      "s:@()};": 6974,
      "opts": 6975,
      "summary;": 6976,
      "shortest=\"_\"){shortest=current": 6977,
      "divisor=": 6978,
      ":u64;q": 6979,
      "inword=1){count=count+1": 6980,
      "e.message": 6981,
      "<fail(name;str.concat(\"_\";str.concat(": 6982,
      "a+b;a=b;b=": 6983,
      "){count=count+1};<count};f=": 6984,
      "){count=count+1}};<count};f=": 6985,
      ";rhs:u64": 6986,
      "len=s.len;let count=mut.0;let inword": 6987,
      ".len;if(currlen<": 6988,
      "registry:$": 6989,
      ":loke.core.": 6990,
      "first;second": 6991,
      ":i64;c:i64):i64{if(": 6992,
      "val=\"_\"){<\"_\"};if(": 6993,
      "sort(arr:@i64):@i64{let ": 6994,
      ")}el{<fail": 6995,
      "hardwareprofile{": 6996,
      "triangletype": 6997,
      "pass(name)}el{<fail": 6998,
      "shortlen){shortest=current": 6999,
      "shortlen=shortest": 7000,
      "installresult{success:false;": 7001,
      "text:proto.toolresult": 7002,
      "1){count=count+1;inword=0": 7003,
      "=mergesort(": 7004,
      "classifyangle(deg": 7005,
      "wordcount(s:$str):i64{let len=s.len;let count=mut.0;let inword": 7006,
      "trafficlight(": 7007,
      "hypot": 7008,
      "all=false;i=i+1}": 7009,
      "agegroup(age": 7010,
      "m=q.len;lp(let j=0;j<m;j=j+2){let ": 7011,
      "collatzsteps(n:i64):i64{let steps=mut.0;let current=mut.n;": 7012,
      "+dy*dy;<": 7013,
      "ch=q.get(j);if(ch as u8": 7014,
      "1};};if(inword=1){count=count+1": 7015,
      "lp(let i=0;i<13;i=i+1){let val=value": 7016,
      " if(i>n){<all}el{": 7017,
      "};}el{inword=1};};if(inword=1){count=count+1": 7018,
      "){if(inword=1){count=count+1;inword=0": 7019,
      "=mut.0;lp(let i=0;i<len;i=i+1){let ch=s.get(i);if(ch=32){if(inword=1){count=count+1;inword=0": 7020,
      ".len;if(currlen<shortlen){shortest=current": 7021,
      "shortlen=shortest.len;if(currlen<shortlen){shortest=current": 7022,
      "wordcount(s:$str):i64{let len=s.len;let count=mut.0;let inword=mut.0;lp(let i=0;i<len;i=i+1){let ch=s.get(i);if(ch=32){if(inword=1){count=count+1;inword=0": 7023,
      "m=q.len;lp(let j=0;j<m;j=j+2){let ch=q.get(j);if(ch as u8": 7024,
      "wordcount(s:$str):i64{let len=s.len;let count=mut.0;let inword=mut.0;lp(let i=0;i<len;i=i+1){let ch=s.get(i);if(ch=32){if(inword=1){count=count+1;inword=0};}el{inword=1};};if(inword=1){count=count+1": 7025,
      "m=q.len;lp(let j=0;j<m;j=j+2){let ch=q.get(j);if(ch as u8=c": 7026,
      "75": 7027,
      ">n){": 7028,
      "em": 7029,
      "m=mut.0;if(": 7030,
      "manualtolower": 7031,
      "q=0": 7032,
      "0;!(": 7033,
      "=mut.str.concat(\"_\";": 7034,
      "consen": 7035,
      "len-": 7036,
      "med": 7037,
      "s:bool": 7038,
      "lp(let i=0;i<len;i=i+1){let ch=": 7039,
      "){if(j<": 7040,
      "}}};let ": 7041,
      "sumsquaresn": 7042,
      "(p:@$str;q": 7043,
      "+1;inword=true": 7044,
      "len=arr.len": 7045,
      ".len;let len": 7046,
      ".len;let shortlen=shortest.len;if(currlen<shortlen){shortest=current": 7047,
      "parsefloat(": 7048,
      "base;": 7049,
      " log.info(tr.t(\"_\");\"_\";\"_\");": 7050,
      "=$row{vals:@(": 7051,
      "content;": 7052,
      "profiler;": 7053,
      "stages;": 7054,
      "};let result=mut.1;": 7055,
      "letter){": 7056,
      "prompt;": 7057,
      "nonce": 7058,
      " let r1=": 7059,
      "$err:e@()": 7060,
      "/2*2;let ": 7061,
      "0.0){result=\"_\"};if(": 7062,
      "bitlen": 7063,
      "cnt=mut.0;let ": 7064,
      "detect;": 7065,
      "asserteq(\"_\";": 7066,
      "){<true};if(val=\"_\"": 7067,
      "<90": 7068,
      "val);j=j+1){result=result+": 7069,
      "\"_\"};<\"_\"};f=": 7070,
      "result=result+\"_\";result=result+": 7071,
      "){count=count+1;inword=false}}el{inword=true}};if(inword": 7072,
      "isvowel=mut.false;if(": 7073,
      "prompt=": 7074,
      "m=numtostr;f=": 7075,
      "confirm": 7076,
      "assign": 7077,
      " risklevel": 7078,
      " let sql=\"_\";": 7079,
      "};<guess};f=": 7080,
      "=crypto.": 7081,
      "symbols.get(i as u64);num=num": 7082,
      "input.": 7083,
      " header": 7084,
      " url:": 7085,
      " requires": 7086,
      "*(": 7087,
      "1};": 7088,
      "24;": 7089,
      ";1": 7090,
      "leas": 7091,
      "str.trim": 7092,
      "len;i=i+1){let c=": 7093,
      "+1.0;let ": 7094,
      "id));": 7095,
      " let req": 7096,
      " let current": 7097,
      " let total=": 7098,
      ";f=power": 7099,
      ";f=divide": 7100,
      ")){result=result+\"_\";": 7101,
      "proc.": 7102,
      "resolution": 7103,
      "rhs>96){if(": 7104,
      "curr=": 7105,
      ":$str):bool{<is": 7106,
      "(p;": 7107,
      "store:$": 7108,
      "total-": 7109,
      "json.parse": 7110,
      ":f64):i64{<": 7111,
      "result=mut.\"_\";if(": 7112,
      "recv": 7113,
      "force": 7114,
      ":i64):i64{if(x": 7115,
      "substring(": 7116,
      "-1;other": 7117,
      ":v false;$doctor": 7118,
      ":v false;$memorysearch": 7119,
      ":v false;$queuelist": 7120,
      ":v false;$integrations:v false};": 7121,
      "pipeline:v false;$queuelist": 7122,
      "lp(let i=0;i<n;i=i+1){let lhs=": 7123,
      "lp(let i=0;i<n;i=i+1){let ch=": 7124,
      "(lhs))};": 7125,
      ")=tmp;};};};<": 7126,
      "drawer.": 7127,
      "){count=count+1;};": 7128,
      "json.getstr": 7129,
      "dy;let ": 7130,
      "str.concat(\"_\";str.fromint(got)))))": 7131,
      "inword=true)){": 7132,
      ":core.privacy.pipeline;": 7133,
      "ation;confidence:0.8": 7134,
      "s=@(\"_\";\"_\";\"_\";\"_\";\"_\";\"_\";\"_\";\"_\";\"_\";\"_\";\"_\";\"_\";\"_\";\"_\";\"_\";\"_\";\"_\";\"_\";\"_\";\"_\";\"_\";\"_\";\"_\";\"_\";": 7135,
      "lineno": 7136,
      "num1+num2;": 7137,
      "gpuv": 7138,
      "(n:i64):$str{if(n<0": 7139,
      "binomial(n:i64;k": 7140,
      "(n:$str;m": 7141,
      "countprimes(n": 7142,
      "working.rows);lv=lv){": 7143,
      "working.rows;rowidx);": 7144,
      " imports ": 7145,
      "intersect(": 7146,
      "commonsuffix(lhs:$str;rh": 7147,
      "len=current.len;let shortlen=shortest.len;if(currlen<shortlen){shortest=current": 7148,
      " as$str)}el{result=result+(c as$str)}}el{result=result+(c as$str)": 7149,
      "iseven=": 7150,
      "lhs:$str;rhs": 7151,
      "fective": 7152,
      "modelsrecommend:v false;$memorysearch": 7153,
      "trianglesides(": 7154,
      "luhncheck": 7155,
      "400*400;": 7156,
      " let row=str.get(working.rows;rowidx);": 7157,
      " lp(let lv=0;rowidx<str.len(working.rows);lv=lv){": 7158,
      "values=@(1000;900;500;400;100;90;50;40;10;9;5;4;1);let symbols=@(\"_\";\"_\";\"_\";\"_\";\"_\";\"_\";\"_\";\"_\";\"_\";\"_\";\"_\";\"_\";\"_\");lp(let i=0;i<13;i=i+1){let val=value": 7159,
      ":v false;$queuecancel:v false;$modelslist:v false;$": 7160,
      ":v false;$agentslist:v false;$overnightstatus:v false;": 7161,
      "}el{let currlen=current.len;let shortlen=shortest.len;if(currlen<shortlen){shortest=current": 7162,
      "shortest=\"_\"){shortest=current}el{let currlen=current.len;let shortlen=shortest.len;if(currlen<shortlen){shortest=current": 7163,
      "rhs>96){if(rhs": 7164,
      "s=@(\"_\";\"_\";\"_\";\"_\";\"_\";\"_\";\"_\";\"_\";\"_\";\"_\";\"_\";\"_\";\"_\";\"_\";\"_\";\"_\";\"_\";\"_\";\"_\";\"_\";\"_\";\"_\";\"_\";\"_\";\"_\";\"_\");let ": 7165,
      " violation": 7166,
      "$condition{field:\"_\";op:\"_\";": 7167,
      "(mat": 7168,
      ".is": 7169,
      "<n": 7170,
      "gine;": 7171,
      "m<1": 7172,
      "ound": 7173,
      "q=mut.": 7174,
      "y);": 7175,
      ");};<": 7176,
      "i=k": 7177,
      "secs": 7178,
      "geo": 7179,
      "len=0": 7180,
      "+1;};};": 7181,
      "}el{}}};<": 7182,
      "m=abs": 7183,
      "m=countupper": 7184,
      "){<num1": 7185,
      "isdig": 7186,
      ";f=add": 7187,
      ";f=negate": 7188,
      ")){found=true;": 7189,
      ":i64):f64{<": 7190,
      "=mut.0;lp(let k=0;k<": 7191,
      "prod=": 7192,
      ";if(diff": 7193,
      "ing=apply": 7194,
      "assertint": 7195,
      "testing.": 7196,
      "(n:@i64;m": 7197,
      "dite": 7198,
      "minlen": 7199,
      "(p.": 7200,
      "(p:u64;q": 7201,
      "edat": 7202,
      "=\"_\"){result=\"_\"}el{if(": 7203,
      "rentr": 7204,
      "httpcategory": 7205,
      "json.encode(": 7206,
      "len=result": 7207,
      "len=p0.len;": 7208,
      "n;j=j+1){if(": 7209,
      "){<\"_\"};if(p0=": 7210,
      "1){result=\"_\"};if(": 7211,
      "get));": 7212,
      ":core.storage.": 7213,
      "home": 7214,
      " mt resp{": 7215,
      ":i64):$str{let second=": 7216,
      "){isgoo": 7217,
      "(lhs:@i64": 7218,
      "privacy;": 7219,
      "contenttype:\"_\";": 7220,
      ":u64):bool{let ": 7221,
      "fields=": 7222,
      "want:i32):$result{": 7223,
      "filter(ds;q.": 7224,
      "factorialrec(val:i64;other:i64):i64{if(val=other){<1": 7225,
      "s;f=demo": 7226,
      ":$str):i64{let q=mut.0;lp(let i=0;i<p.len;i=i+1){q=q": 7227,
      "lhs;i=i+1){": 7228,
      "warn": 7229,
      "limit=": 7230,
      "countupper(": 7231,
      "items;": 7232,
      "zor=mut.false;if(": 7233,
      "){<0};let count=mut.0;let ": 7234,
      " let rowidx=mut.0;": 7235,
      "dedup": 7236,
      " if(!r": 7237,
      "usecaseownership": 7238,
      "};<res};f=": 7239,
      ":i32;want:i32):$result{": 7240,
      "n=s.len;if(n=0": 7241,
      "(n:i64):i64{if(n=0){<1": 7242,
      "overla": 7243,
      "discovery;": 7244,
      "sused;": 7245,
      "lp(let j=0;!(num<": 7246,
      "result=mut.0.0;let ": 7247,
      "openai;": 7248,
      "$ok:rows rows;": 7249,
      "m=mcpbroker.": 7250,
      "c=32){inword=false}el{if(!(": 7251,
      "attrs=str.concat(attrs;str.concat(\"_\";str.concat(cfg.": 7252,
      "unix();": 7253,
      "filtercol;q.": 7254,
      "toolresult{contenttype:\"_\";": 7255,
      "<1){<\"_\"};if(second>": 7256,
      "c=32){if(inword){count=count+1;inword=false}}el{inword=true}};if(inword": 7257,
      "3999": 7258,
      " let working=apply": 7259,
      "factorialrecwrapper(n:i64):i64{<factorialrec": 7260,
      "first=s;let second=mut.0;if(": 7261,
      "factorialrec(val-1;other": 7262,
      "leasenote": 7263,
      "values=@(1000;900;500;400;100;90;50;40;10;9;5;4;1);let symbols=@(\"_\";\"_\";\"_\";\"_\";\"_\";\"_\";\"_\";\"_\";\"_\";\"_\";\"_\";\"_\";\"_\");lp(let i=0;i<13;i=i+1){let val=values.get(i as u64);": 7264,
      "filter(ds;q.filtercol;q.": 7265,
      "c=32){inword=false}el{if(!(inword=true)){": 7266,
      " let working=applyfilter(ds;q.filtercol;q.": 7267,
      " let working=applyfilter(ds;q.filtercol;q.filterval);": 7268,
      " level": 7269,
      "(config": 7270,
      "/(i as f64": 7271,
      "=new": 7272,
      "ding;": 7273,
      "i-i": 7274,
      "n);let ": 7275,
      "n<0){<": 7276,
      "usto": 7277,
      " let result=mut.": 7278,
      "$str;let ": 7279,
      "};if(m=": 7280,
      "num-num": 7281,
      "keyp": 7282,
      "first:$str;second": 7283,
      "left+": 7284,
      "rhs>": 7285,
      "lines;": 7286,
      "lhs>rhs": 7287,
      "minval": 7288,
      ":v$": 7289,
      "sortedleft": 7290,
      "val=p0;let ": 7291,
      "int64": 7292,
      "padded": 7293,
      "client(": 7294,
      "sum=n": 7295,
      "$err:e 0};": 7296,
      "=mut.1;if(": 7297,
      " if(str.contains(modelid;\"_\")){": 7298,
      "reason:\"_\"}": 7299,
      "}}el{r=r+c as$str": 7300,
      "http.client(": 7301,
      "m=accnthprime": 7302,
      "nthprime(arr.get(i as u64));};<r};": 7303,
      " rowcount:": 7304,
      "queue;": 7305,
      "caesar": 7306,
      "val=other){<val};if(": 7307,
      " scope": 7308,
      "product=": 7309,
      "dashboardcard{": 7310,
      "){<true}el{<false}};": 7311,
      "fizzbuzz(n:i64):$str{let ": 7312,
      "abs(x:i64):i64{let ": 7313,
      " colcount:": 7314,
      ")=tmp;};};};let ": 7315,
      "emitter.": 7316,
      "=c+32;if(": 7317,
      "toroman(first:i64):$str{let second=": 7318,
      "second;let values=@(1000;900;500;400;100;90;50;40;10;9;5;4;1);let symbols=@(\"_\";\"_\";\"_\";\"_\";\"_\";\"_\";\"_\";\"_\";\"_\";\"_\";\"_\";\"_\";\"_\");lp(let i=0;i<13;i=i+1){let val=values.get(i as u64);": 7319,
      " let updated=": 7320,
      "lp(let i=0;i<64;i=i+1){if(": 7321,
      "first;if(second<1){<\"_\"};if(second>": 7322,
      "){<\"_\"};let result=mut.\"_\";let num=mut.second;let values=@(1000;900;500;400;100;90;50;40;10;9;5;4;1);let symbols=@(\"_\";\"_\";\"_\";\"_\";\"_\";\"_\";\"_\";\"_\";\"_\";\"_\";\"_\";\"_\";\"_\");lp(let i=0;i<13;i=i+1){let val=values.get(i as u64);": 7323,
      "rhs>64){if(rhs<91){": 7324,
      "p=\"_\"){q=true};if(": 7325,
      "p0.len;i=i+1){let ch=p0.get(i);if(": 7326,
      "){<true};if(val=\"_\"){<true};if(val=\"_\"": 7327,
      "val);j=j+1){result=result+symbols.get(i as u64);num=num": 7328,
      "lp(let j=0;!(num<val);j=j+1){result=result+symbols.get(i as u64);num=num": 7329,
      "3999){<\"_\"};let result=mut.\"_\";let num=mut.second;let values=@(1000;900;500;400;100;90;50;40;10;9;5;4;1);let symbols=@(\"_\";\"_\";\"_\";\"_\";\"_\";\"_\";\"_\";\"_\";\"_\";\"_\";\"_\";\"_\";\"_\");lp(let i=0;i<13;i=i+1){let val=values.get(i as u64);": 7330,
      "toroman(first:i64):$str{let second=first;if(second<1){<\"_\"};if(second>": 7331,
      "lp(let j=0;!(num<val);j=j+1){result=result+symbols.get(i as u64);num=num-val": 7332,
      "3999){<\"_\"};let result=mut.\"_\";let num=mut.second;let values=@(1000;900;500;400;100;90;50;40;10;9;5;4;1);let symbols=@(\"_\";\"_\";\"_\";\"_\";\"_\";\"_\";\"_\";\"_\";\"_\";\"_\";\"_\";\"_\";\"_\");lp(let i=0;i<13;i=i+1){let val=values.get(i as u64);lp(let j=0;!(num<val);j=j+1){result=result+symbols.get(i as u64);num=num-val": 7333,
      "toroman(first:i64):$str{let second=first;if(second<1){<\"_\"};if(second>3999){<\"_\"};let result=mut.\"_\";let num=mut.second;let values=@(1000;900;500;400;100;90;50;40;10;9;5;4;1);let symbols=@(\"_\";\"_\";\"_\";\"_\";\"_\";\"_\";\"_\";\"_\";\"_\";\"_\";\"_\";\"_\";\"_\");lp(let i=0;i<13;i=i+1){let val=values.get(i as u64);lp(let j=0;!(num<val);j=j+1){result=result+symbols.get(i as u64);num=num-val": 7334,
      " tolerance": 7335,
      " net.": 7336,
      "/divisor": 7337,
      ";t=$": 7338,
      "ci<": 7339,
      "c))};": 7340,
      "ilt": 7341,
      "s*)": 7342,
      "s=mut.@();let ": 7343,
      "ts;": 7344,
      "};f=m": 7345,
      "str=\"_\";": 7346,
      "sema": 7347,
      "f=add": 7348,
      "m=page.moke.": 7349,
      "countabove": 7350,
      "))>0){": 7351,
      ";f=difference": 7352,
      ".get(i));};": 7353,
      ")){br}el{": 7354,
      "first=mut.0;let ": 7355,
      "mod2=": 7356,
      "name)": 7357,
      "rhs<1": 7358,
      "secondsmallest": 7359,
      "wordcount=mut.0;let inword=mut.false;": 7360,
      "sorted;": 7361,
      "maxdays=": 7362,
      "key)))": 7363,
      " if(str.eq(id": 7364,
      " as u8){let ": 7365,
      "padleft": 7366,
      "msg:str):$result{<$result{name:n;passed": 7367,
      "lastslash": 7368,
      "void!$lokeerr{": 7369,
      "(arr:@i64):i64{<": 7370,
      "event{": 7371,
      ":i64):$str{let n=": 7372,
      "passed){<": 7373,
      "item.": 7374,
      "0 as u64)};<": 7375,
      "flags(": 7376,
      "fibonaccirec(n-2": 7377,
      "result=mut.@();lp(let i=0;i<arr.len;i=i+1){let ": 7378,
      "lp(let i=0;i<1;i=i+1){": 7379,
      "dxsq": 7380,
      "dysq": 7381,
      "(n:str;msg:str):$result{<$result{name:n;passed": 7382,
      "rows:i64;": 7383,
      "bmicategory": 7384,
      ";f=min3": 7385,
      "chat;": 7386,
      ".len;lp(let i=0;i<n;i=i+1){let c=val.get(i);if(": 7387,
      "integration.": 7388,
      "lp(let dummy=0;num>0;": 7389,
      "n=val.len;lp(let i=0;i<n;i=i+1){let c=val.get(i);if(": 7390,
      "lp(let i=0;i<n;i=i+1){let c=first.get(i);if(c=32){inword=false}el{if(!(inword=true)){": 7391,
      "nextp": 7392,
      "defaultconfig();": 7393,
      "webhook": 7394,
      " Ok:": 7395,
      "n=first.len;let wordcount=mut.0;let inword=mut.false;": 7396,
      "lettergrade(pct": 7397,
      " timestamp:": 7398,
      ":str):$result{<$result{name:n;passed:true;message:\"_\"}};": 7399,
      " skipped": 7400,
      "f=fail(n:str;msg:str):$result{<$result{name:n;passed": 7401,
      "$locale:v false;$integrations:v false};": 7402,
      "r=r+(rhs as$str)}el{if(": 7403,
      "f=pass(n:str):$result{<$result{name:n;passed:true;message:\"_\"}};": 7404,
      "distance(x1:f64;y1:f64;x2:f64;y2:f64):f64{let dx=x2-x1;let dy=y2-y1;let ": 7405,
      "shifted-shifted": 7406,
      "second<0){<0};let n=first.len;let wordcount=mut.0;let inword=mut.false;": 7407,
      " let obj=mt parsed{": 7408,
      "countwords(s:$str):i64{let first=s;let second=mut.0;if(": 7409,
      "wordcount=wordcount+1;inword=true": 7410,
      ":v false;$version:v false;$doctor": 7411,
      ":v false;$ask:v false;$pipeline:v false;$queuelist": 7412,
      "}el{}}};<wordcount": 7413,
      "lp(let i=0;i<n;i=i+1){let c=first.get(i);if(c=32){inword=false}el{if(!(inword=true)){wordcount=wordcount+1;inword=true": 7414,
      "f=fail(n:str;msg:str):$result{<$result{name:n;passed:false;message:msg}};": 7415,
      "second<0){<0};let n=first.len;let wordcount=mut.0;let inword=mut.false;lp(let i=0;i<n;i=i+1){let c=first.get(i);if(c=32){inword=false}el{if(!(inword=true)){wordcount=wordcount+1;inword=true": 7416,
      "countwords(s:$str):i64{let first=s;let second=mut.0;if(second<0){<0};let n=first.len;let wordcount=mut.0;let inword=mut.false;lp(let i=0;i<n;i=i+1){let c=first.get(i);if(c=32){inword=false}el{if(!(inword=true)){wordcount=wordcount+1;inword=true": 7417,
      "countwords(s:$str):i64{let first=s;let second=mut.0;if(second<0){<0};let n=first.len;let wordcount=mut.0;let inword=mut.false;lp(let i=0;i<n;i=i+1){let c=first.get(i);if(c=32){inword=false}el{if(!(inword=true)){wordcount=wordcount+1;inword=true}el{}}};<wordcount": 7418,
      " use": 7419,
      " startedat": 7420,
      ")};if(": 7421,
      "*100": 7422,
      ";};<result};": 7423,
      "asu": 7424,
      "plain": 7425,
      "x+": 7426,
      "allto": 7427,
      "ntic": 7428,
      "=mut.exp;": 7429,
      "len:": 7430,
      "}el{r=r+c as$str": 7431,
      "m=exp": 7432,
      "arrcount(": 7433,
      "val<0){": 7434,
      "@(\"_\";": 7435,
      ".get(i)<": 7436,
      " if(cond.": 7437,
      ";i=i+1){right=right": 7438,
      "logic": 7439,
      ";if(count=": 7440,
      "left=mut.": 7441,
      "n=p0.len;": 7442,
      "-1.0": 7443,
      "lhs:f64;rhs:f64):": 7444,
      "}el{<right": 7445,
      ":f64):bool{let ": 7446,
      "m=m+1};};<": 7447,
      " if(str.eq(sub": 7448,
      "state();": 7449,
      "tokens=": 7450,
      "};<result};f=is": 7451,
      "sens.": 7452,
      ".get(i as u64));": 7453,
      "result=mut.\"_\";let first": 7454,
      "opts);": 7455,
      "};let result=mut.true;": 7456,
      "sizegb:": 7457,
      "val.len=": 7458,
      "p.len;i=i+1){if(": 7459,
      "encrypt": 7460,
      "rhs;i=i+1){": 7461,
      "source;": 7462,
      "m=tocamelcase": 7463,
      "findings": 7464,
      " rows:@();": 7465,
      "tabs;": 7466,
      "idx=idx+1){": 7467,
      "}}el{result=result+(char as$str)": 7468,
      "switche": 7469,
      " labels:@();": 7470,
      "Err:e@()};let ": 7471,
      "(i as u64))": 7472,
      "register": 7473,
      "display": 7474,
      "strength:\"_\";": 7475,
      "register(reg": 7476,
      "daysinmonth(month": 7477,
      ":loke.platform.i18n.translator;": 7478,
      "chosen": 7479,
      "digit as$str": 7480,
      "(palace:i64;": 7481,
      "lp(let pass=0;": 7482,
      "tempcategory(celsius:f64):": 7483,
      "req=str.mockhttpreqwith": 7484,
      "letter=true}};if(letter){": 7485,
      "charstr=(": 7486,
      "palacelocation{": 7487,
      "modelerr(": 7488,
      "installresult{success:false;message:\"_\";version:\"_\"}": 7489,
      "semantic": 7490,
      "}el{r=r+c as$str}}el{r=r+c as$str": 7491,
      "letter=true}};if(letter){m=m+c": 7492,
      " config": 7493,
      "(s.": 7494,
      "+s": 7495,
      "+rhs;": 7496,
      "2){<true};let ": 7497,
      ":page.": 7498,
      "multip": 7499,
      "y){": 7500,
      "alice": 7501,
      " let agent": 7502,
      "count=0){": 7503,
      "depth": 7504,
      ";i=i+1){res=res": 7505,
      "s.event": 7506,
      "rie": 7507,
[...]
